{
  "version": "1.0",
  "truncation": null,
  "padding": null,
  "added_tokens": [
    {
      "id": 0,
      "content": "<|endoftext|>",
      "single_word": false,
      "lstrip": false,
      "rstrip": false,
      "normalized": false,
      "special": true
    },
    {
      "id": 1,
      "content": "<|padding|>",
      "single_word": false,
      "lstrip": false,
      "rstrip": false,
      "normalized": false,
      "special": true
    }
  ],
  "normalizer": null,
  "pre_tokenizer": {
    "type": "ByteLevel",
    "add_prefix_space": false,
    "trim_offsets": true,
    "use_regex": true
  },
  "post_processor": {
    "type": "ByteLevel",
    "add_prefix_space": true,
    "trim_offsets": false,
    "use_regex": true
  },
  "decoder": {
    "type": "ByteLevel",
    "add_prefix_space": true,
    "trim_offsets": true,
    "use_regex": true
  },
  "model": {
    "type": "BPE",
    "dropout": null,
    "unk_token": null,
    "continuing_subword_prefix": null,
    "end_of_word_suffix": null,
    "fuse_unk": false,
    "byte_fallback": false,
    "ignore_merges": false,
    "vocab": {
      "<|endoftext|>": 0,
      "<|padding|>": 1,
      "!": 2,
      "\"": 3,
      "#": 4,
      "$": 5,
      "%": 6,
      "&": 7,
      "'": 8,
      "(": 9,
      ")": 10,
      "*": 11,
      "+": 12,
      ",": 13,
      "-": 14,
      ".": 15,
      "/": 16,
      "0": 17,
      "1": 18,
      "2": 19,
      "3": 20,
      "4": 21,
      "5": 22,
      "6": 23,
      "7": 24,
      "8": 25,
      "9": 26,
      ":": 27,
      ";": 28,
      "<": 29,
      "=": 30,
      ">": 31,
      "?": 32,
      "@": 33,
      "A": 34,
      "B": 35,
      "C": 36,
      "D": 37,
      "E": 38,
      "F": 39,
      "G": 40,
      "H": 41,
      "I": 42,
      "J": 43,
      "K": 44,
      "L": 45,
      "M": 46,
      "N": 47,
      "O": 48,
      "P": 49,
      "Q": 50,
      "R": 51,
      "S": 52,
      "T": 53,
      "U": 54,
      "V": 55,
      "W": 56,
      "X": 57,
      "Y": 58,
      "Z": 59,
      "[": 60,
      "\\": 61,
      "]": 62,
      "^": 63,
      "_": 64,
      "`": 65,
      "a": 66,
      "b": 67,
      "c": 68,
      "d": 69,
      "e": 70,
      "f": 71,
      "g": 72,
      "h": 73,
      "i": 74,
      "j": 75,
      "k": 76,
      "l": 77,
      "m": 78,
      "n": 79,
      "o": 80,
      "p": 81,
      "q": 82,
      "r": 83,
      "s": 84,
      "t": 85,
      "u": 86,
      "v": 87,
      "w": 88,
      "x": 89,
      "y": 90,
      "z": 91,
      "{": 92,
      "|": 93,
      "}": 94,
      "~": 95,
      "¡": 96,
      "¢": 97,
      "£": 98,
      "¤": 99,
      "¥": 100,
      "¦": 101,
      "§": 102,
      "¨": 103,
      "©": 104,
      "ª": 105,
      "«": 106,
      "¬": 107,
      "®": 108,
      "¯": 109,
      "°": 110,
      "±": 111,
      "²": 112,
      "³": 113,
      "´": 114,
      "µ": 115,
      "¶": 116,
      "·": 117,
      "¸": 118,
      "¹": 119,
      "º": 120,
      "»": 121,
      "¼": 122,
      "½": 123,
      "¾": 124,
      "¿": 125,
      "À": 126,
      "Á": 127,
      "Â": 128,
      "Ã": 129,
      "Ä": 130,
      "Å": 131,
      "Æ": 132,
      "Ç": 133,
      "È": 134,
      "É": 135,
      "Ê": 136,
      "Ë": 137,
      "Ì": 138,
      "Í": 139,
      "Î": 140,
      "Ï": 141,
      "Ð": 142,
      "Ñ": 143,
      "Ò": 144,
      "Ó": 145,
      "Ô": 146,
      "Õ": 147,
      "Ö": 148,
      "×": 149,
      "Ø": 150,
      "Ù": 151,
      "Ú": 152,
      "Û": 153,
      "Ü": 154,
      "Ý": 155,
      "Þ": 156,
      "ß": 157,
      "à": 158,
      "á": 159,
      "â": 160,
      "ã": 161,
      "ä": 162,
      "å": 163,
      "æ": 164,
      "ç": 165,
      "è": 166,
      "é": 167,
      "ê": 168,
      "ë": 169,
      "ì": 170,
      "í": 171,
      "î": 172,
      "ï": 173,
      "ð": 174,
      "ñ": 175,
      "ò": 176,
      "ó": 177,
      "ô": 178,
      "õ": 179,
      "ö": 180,
      "÷": 181,
      "ø": 182,
      "ù": 183,
      "ú": 184,
      "û": 185,
      "ü": 186,
      "ý": 187,
      "þ": 188,
      "ÿ": 189,
      "Ā": 190,
      "ā": 191,
      "Ă": 192,
      "ă": 193,
      "Ą": 194,
      "ą": 195,
      "Ć": 196,
      "ć": 197,
      "Ĉ": 198,
      "ĉ": 199,
      "Ċ": 200,
      "ċ": 201,
      "Č": 202,
      "č": 203,
      "Ď": 204,
      "ď": 205,
      "Đ": 206,
      "đ": 207,
      "Ē": 208,
      "ē": 209,
      "Ĕ": 210,
      "ĕ": 211,
      "Ė": 212,
      "ė": 213,
      "Ę": 214,
      "ę": 215,
      "Ě": 216,
      "ě": 217,
      "Ĝ": 218,
      "ĝ": 219,
      "Ğ": 220,
      "ğ": 221,
      "Ġ": 222,
      "ġ": 223,
      "Ģ": 224,
      "ģ": 225,
      "Ĥ": 226,
      "ĥ": 227,
      "Ħ": 228,
      "ħ": 229,
      "Ĩ": 230,
      "ĩ": 231,
      "Ī": 232,
      "ī": 233,
      "Ĭ": 234,
      "ĭ": 235,
      "Į": 236,
      "į": 237,
      "İ": 238,
      "ı": 239,
      "Ĳ": 240,
      "ĳ": 241,
      "Ĵ": 242,
      "ĵ": 243,
      "Ķ": 244,
      "ķ": 245,
      "ĸ": 246,
      "Ĺ": 247,
      "ĺ": 248,
      "Ļ": 249,
      "ļ": 250,
      "Ľ": 251,
      "ľ": 252,
      "Ŀ": 253,
      "ŀ": 254,
      "Ł": 255,
      "ł": 256,
      "Ń": 257,
      "Ġt": 258,
      "Ġa": 259,
      "in": 260,
      "he": 261,
      "re": 262,
      "on": 263,
      "er": 264,
      "Ġthe": 265,
      "Ġs": 266,
      "at": 267,
      "Ġw": 268,
      "or": 269,
      "ou": 270,
      "nd": 271,
      "Ġc": 272,
      "it": 273,
      "es": 274,
      "is": 275,
      "en": 276,
      "ing": 277,
      "Ġf": 278,
      "Ġb": 279,
      "Ġp": 280,
      "Ġo": 281,
      "an": 282,
      "al": 283,
      "ed": 284,
      "Ġm": 285,
      "Ġto": 286,
      "ar": 287,
      "Ġand": 288,
      "Ġin": 289,
      "Ġof": 290,
      "Ġd": 291,
      "ic": 292,
      "le": 293,
      "om": 294,
      "Ġh": 295,
      "as": 296,
      "ion": 297,
      "Ġth": 298,
      "ll": 299,
      "ent": 300,
      "Ġl": 301,
      "ve": 302,
      "st": 303,
      "ro": 304,
      "Ġy": 305,
      "Ġe": 306,
      "Ġre": 307,
      "Ġn": 308,
      "ĠI": 309,
      "Ġg": 310,
      "ct": 311,
      "et": 312,
      "ly": 313,
      "ĠT": 314,
      "Ġyou": 315,
      "ĠS": 316,
      "Ġis": 317,
      "ot": 318,
      "id": 319,
      "ĠC": 320,
      "Ġbe": 321,
      "Ġfor": 322,
      "Ġon": 323,
      "ay": 324,
      "âĢ": 325,
      "ĠA": 326,
      "ow": 327,
      "us": 328,
      "ce": 329,
      "ad": 330,
      "im": 331,
      "ig": 332,
      "am": 333,
      "ch": 334,
      "ver": 335,
      "ut": 336,
      "il": 337,
      "Ġthat": 338,
      "ol": 339,
      "ation": 340,
      "ith": 341,
      "Ġst": 342,
      "ĠM": 343,
      "ur": 344,
      "Ġwith": 345,
      "ir": 346,
      "ĠP": 347,
      "Ġit": 348,
      "se": 349,
      "ĠB": 350,
      "ra": 351,
      "Ġwe": 352,
      "Ġhe": 353,
      "ill": 354,
      "ers": 355,
      "Ġan": 356,
      "Ġas": 357,
      "un": 358,
      "Ġwh": 359,
      "if": 360,
      "ke": 361,
      "Ġpro": 362,
      "out": 363,
      "ter": 364,
      "Ġare": 365,
      "ge": 366,
      "ĠW": 367,
      "oo": 368,
      "Ġha": 369,
      "Ġ2": 370,
      "ĠD": 371,
      "ul": 372,
      "ĠH": 373,
      "ess": 374,
      "Ġcon": 375,
      "ĠF": 376,
      "ate": 377,
      "pp": 378,
      "ment": 379,
      "her": 380,
      "ld": 381,
      "Ġ1": 382,
      "ĠR": 383,
      "ck": 384,
      "Ġcom": 385,
      "est": 386,
      "Ġor": 387,
      "our": 388,
      "ore": 389,
      "ri": 390,
      "Ġat": 391,
      "ĠThe": 392,
      "ab": 393,
      "Ġse": 394,
      "Ġde": 395,
      "igh": 396,
      "Ġ(": 397,
      "ĠL": 398,
      "ew": 399,
      "ist": 400,
      "ort": 401,
      "pe": 402,
      "rom": 403,
      "âĢĻ": 404,
      "Ġex": 405,
      "qu": 406,
      "ant": 407,
      "ĠG": 408,
      "ure": 409,
      "Ġyour": 410,
      "ity": 411,
      "ĠE": 412,
      "ĠN": 413,
      "Ġv": 414,
      "Ġwas": 415,
      "um": 416,
      "Ġhave": 417,
      "ive": 418,
      "el": 419,
      "em": 420,
      "op": 421,
      "ust": 422,
      "art": 423,
      "Ġthis": 424,
      "ain": 425,
      "'s": 426,
      "Ġr": 427,
      "os": 428,
      "ies": 429,
      "th": 430,
      "Ġcan": 431,
      "Ġfrom": 432,
      "and": 433,
      "Ġnot": 434,
      "Ġsh": 435,
      "Ġal": 436,
      "Ġby": 437,
      "nt": 438,
      "ĠO": 439,
      "Ġus": 440,
      "Ġch": 441,
      "up": 442,
      "ight": 443,
      "ome": 444,
      "ard": 445,
      "res": 446,
      "all": 447,
      "Ġ20": 448,
      "ost": 449,
      "Ġwill": 450,
      "ould": 451,
      "Ġsu": 452,
      "Ġle": 453,
      "od": 454,
      "ud": 455,
      "ally": 456,
      "ine": 457,
      "Ġdo": 458,
      "Ġab": 459,
      "iv": 460,
      "ĠâĢ": 461,
      "te": 462,
      "Ġpl": 463,
      "ear": 464,
      "gh": 465,
      "ĠJ": 466,
      "ide": 467,
      "ci": 468,
      "..": 469,
      "ag": 470,
      "Ġj": 471,
      "Ġwor": 472,
      "Ġall": 473,
      "ak": 474,
      "red": 475,
      "ast": 476,
      "rou": 477,
      "Ġk": 478,
      "Ġne": 479,
      "fe": 480,
      "Ġso": 481,
      "ice": 482,
      "age": 483,
      "pt": 484,
      "ction": 485,
      "ook": 486,
      "The": 487,
      "ack": 488,
      "ac": 489,
      "per": 490,
      "Ġme": 491,
      "lo": 492,
      "Ġhas": 493,
      "00": 494,
      "Ġcomp": 495,
      "Ġad": 496,
      "Ġbut": 497,
      "ind": 498,
      "Ġwhe": 499,
      "ĠU": 500,
      "one": 501,
      "ie": 502,
      "Ġout": 503,
      "are": 504,
      "ake": 505,
      "ther": 506,
      "ry": 507,
      "ite": 508,
      "able": 509,
      "ich": 510,
      "Ġup": 511,
      "so": 512,
      "very": 513,
      "ood": 514,
      "Ġen": 515,
      "Ġthey": 516,
      "Ġmore": 517,
      "ated": 518,
      "Ġmy": 519,
      "ip": 520,
      "iz": 521,
      "ime": 522,
      "cc": 523,
      "ong": 524,
      "ĠTh": 525,
      "ĠIn": 526,
      "ber": 527,
      "ous": 528,
      "Ġtheir": 529,
      "ike": 530,
      "Ġte": 531,
      "ans": 532,
      "Ġlo": 533,
      "Ġone": 534,
      "for": 535,
      "Ġim": 536,
      "ance": 537,
      "Ġ-": 538,
      "Ġabout": 539,
      "act": 540,
      "du": 541,
      "ĠK": 542,
      "ia": 543,
      "ions": 544,
      "ĠY": 545,
      "ame": 546,
      "Ġman": 547,
      "Ġour": 548,
      "Ġcont": 549,
      "Ġ\"": 550,
      "ap": 551,
      "Ġun": 552,
      "ru": 553,
      "ire": 554,
      "ep": 555,
      "ign": 556,
      "ach": 557,
      "ail": 558,
      "ĠSt": 559,
      "og": 560,
      "ary": 561,
      "Ġ201": 562,
      "ree": 563,
      "Ġgo": 564,
      "ib": 565,
      "Ġcl": 566,
      "ult": 567,
      "reat": 568,
      "Ġwork": 569,
      "Ġinc": 570,
      "ase": 571,
      "Ġapp": 572,
      "Ġwho": 573,
      "Ġsa": 574,
      "ace": 575,
      "ĠV": 576,
      "Ġres": 577,
      "Ġwhich": 578,
      "und": 579,
      "ations": 580,
      "Ġqu": 581,
      "ick": 582,
      "ays": 583,
      "pl": 584,
      "Ġhis": 585,
      "ub": 586,
      "Ġ3": 587,
      "ff": 588,
      "ark": 589,
      "ical": 590,
      "ass": 591,
      "Ġlike": 592,
      "ue": 593,
      "to": 594,
      "Ġget": 595,
      "Ġper": 596,
      "ven": 597,
      "ile": 598,
      "Ġoff": 599,
      "Ġtime": 600,
      "Ġalso": 601,
      "Ġother": 602,
      "erv": 603,
      "ne": 604,
      "vel": 605,
      "own": 606,
      "ount": 607,
      "Ġany": 608,
      "ĠCh": 609,
      "ence": 610,
      "Ġyear": 611,
      "form": 612,
      "ings": 613,
      "ĠIt": 614,
      "Ġsome": 615,
      "Ġdis": 616,
      "'t": 617,
      "ress": 618,
      "ond": 619,
      "Ġsp": 620,
      "Ġnew": 621,
      "ink": 622,
      "ition": 623,
      "Ġthem": 624,
      "av": 625,
      "Ġag": 626,
      "ial": 627,
      "Ġthere": 628,
      "Ġkn": 629,
      "Ġpart": 630,
      "ents": 631,
      "Ġif": 632,
      "ough": 633,
      "ors": 634,
      "âĢĿ": 635,
      "Ġpe": 636,
      "Ġbeen": 637,
      "Ġwould": 638,
      "Ġwhen": 639,
      "Ġwhat": 640,
      "Ġover": 641,
      "Ġtr": 642,
      "Ġfe": 643,
      "Ġar": 644,
      "ens": 645,
      "Ġro": 646,
      "port": 647,
      "Ġjust": 648,
      "Ġam": 649,
      "Ġhad": 650,
      "Ġwere": 651,
      "Ġneed": 652,
      "ish": 653,
      "Ġpre": 654,
      "int": 655,
      "ord": 656,
      "Ġthan": 657,
      "ild": 658,
      "Ġspe": 659,
      "Ġco": 660,
      "ĠWe": 661,
      "ound": 662,
      "use": 663,
      "Ġrec": 664,
      "ren": 665,
      "Ġhow": 666,
      "Ġher": 667,
      "wn": 668,
      "Ġbec": 669,
      "ople": 670,
      "ory": 671,
      "mer": 672,
      "ater": 673,
      "Ġacc": 674,
      "Ġno": 675,
      "ang": 676,
      "vers": 677,
      "Ġsc": 678,
      "lic": 679,
      "irst": 680,
      "old": 681,
      "ade": 682,
      "iew": 683,
      "ĠHe": 684,
      "Ġinto": 685,
      "cial": 686,
      "fter": 687,
      "Ġdes": 688,
      "ments": 689,
      "ĠâĢĵ": 690,
      "ning": 691,
      "Ġ4": 692,
      "ĠRe": 693,
      "itt": 694,
      "rough": 695,
      "Ġpeople": 696,
      "lp": 697,
      "Ġ5": 698,
      "ual": 699,
      "ces": 700,
      "ons": 701,
      "we": 702,
      "ob": 703,
      "ric": 704,
      "Ġmay": 705,
      "Ġits": 706,
      "end": 707,
      "ose": 708,
      "ating": 709,
      "ĠâĢľ": 710,
      "ian": 711,
      "oc": 712,
      "Ġknow": 713,
      "Ġmake": 714,
      "lud": 715,
      "Ġhelp": 716,
      "ft": 717,
      "ĠThis": 718,
      "Ġlook": 719,
      "ates": 720,
      "ov": 721,
      "rent": 722,
      "ull": 723,
      "tern": 724,
      "les": 725,
      "Ġadd": 726,
      "Ġtw": 727,
      "ause": 728,
      "Ġbet": 729,
      "hed": 730,
      "Ġsaid": 731,
      "...": 732,
      "ks": 733,
      "Ġcomm": 734,
      "Ġuse": 735,
      "ple": 736,
      "ily": 737,
      "Ġind": 738,
      "Ġprov": 739,
      "Ġpo": 740,
      "Ġonly": 741,
      "Ġmost": 742,
      "Ġfirst": 743,
      "Ġtra": 744,
      "Ġund": 745,
      "Ġwell": 746,
      "ise": 747,
      "ram": 748,
      "20": 749,
      "Ġbu": 750,
      "ect": 751,
      "ove": 752,
      "Ġwant": 753,
      "Ġevery": 754,
      "ious": 755,
      "Ġcons": 756,
      "hing": 757,
      "Ġshe": 758,
      "Ġprodu": 759,
      "Ġact": 760,
      "day": 761,
      "Ġback": 762,
      "ph": 763,
      "Ġsee": 764,
      "round": 765,
      "Ġvery": 766,
      "Ġthrough": 767,
      "Ġserv": 768,
      "fect": 769,
      "Th": 770,
      "ont": 771,
      "Ġem": 772,
      "Ġthese": 773,
      "Ġinclud": 774,
      "ities": 775,
      "ific": 776,
      "com": 777,
      "hen": 778,
      "Ġph": 779,
      "ert": 780,
      "xt": 781,
      "li": 782,
      "Ġdif": 783,
      "Ġgood": 784,
      ").": 785,
      "Ġsupp": 786,
      "Ġ19": 787,
      "oll": 788,
      "iss": 789,
      "ting": 790,
      "ĠYou": 791,
      "lect": 792,
      "iness": 793,
      "Ġunder": 794,
      "ful": 795,
      "Ġpr": 796,
      "uch": 797,
      "ys": 798,
      "row": 799,
      "aw": 800,
      "Ġcould": 801,
      "ject": 802,
      "Ġtwo": 803,
      "ced": 804,
      "bs": 805,
      "rit": 806,
      "Ġ&": 807,
      "ife": 808,
      "Ġafter": 809,
      "sel": 810,
      "cess": 811,
      "line": 812,
      "als": 813,
      "yst": 814,
      "ool": 815,
      "urn": 816,
      "ĠCom": 817,
      "fore": 818,
      "Ġmany": 819,
      "Ġreg": 820,
      "Ġcol": 821,
      "Ġplay": 822,
      "oss": 823,
      "Ġway": 824,
      "ange": 825,
      "erson": 826,
      "Ġstud": 827,
      "Ġexper": 828,
      "Ġshould": 829,
      "any": 830,
      "Ġyears": 831,
      "erm": 832,
      "Ġinv": 833,
      "Ġke": 834,
      "Ġeven": 835,
      "ures": 836,
      "ts": 837,
      "ĠSe": 838,
      "aking": 839,
      "Ġgreat": 840,
      "ices": 841,
      "pect": 842,
      "Ġ$": 843,
      "usiness": 844,
      "Ġnow": 845,
      "ath": 846,
      "ility": 847,
      "Ġfl": 848,
      "ble": 849,
      "olog": 850,
      "ular": 851,
      "Ġ6": 852,
      "Ġthen": 853,
      "ible": 854,
      "Ġdec": 855,
      "Ġrem": 856,
      "ĠPro": 857,
      "ty": 858,
      "Ġsm": 859,
      "oth": 860,
      "ower": 861,
      "ational": 862,
      "get": 863,
      "ased": 864,
      "Ġwhere": 865,
      "ell": 866,
      "ĠUn": 867,
      "Ġdon": 868,
      "ĠWh": 869,
      "Ġthink": 870,
      "Ġmuch": 871,
      "Ġra": 872,
      "ract": 873,
      "ĠAs": 874,
      "ĠDe": 875,
      "Ġbecause": 876,
      "ics": 877,
      "Ġgu": 878,
      "Ġac": 879,
      "Ġdown": 880,
      "Ġstart": 881,
      "Ġrel": 882,
      "Ġbest": 883,
      "ystem": 884,
      "arch": 885,
      "Ġev": 886,
      "its": 887,
      "air": 888,
      "Ġfind": 889,
      "ative": 890,
      "Ġown": 891,
      "Ġfin": 892,
      "Ġdid": 893,
      "Ġright": 894,
      "ward": 895,
      "Ġread": 896,
      "hes": 897,
      "Ġhigh": 898,
      "alth": 899,
      "uring": 900,
      "Ġsec": 901,
      "velop": 902,
      "Ġimp": 903,
      "ork": 904,
      "Ġent": 905,
      "hip": 906,
      "Ġtoo": 907,
      "ank": 908,
      "Ġbl": 909,
      "view": 910,
      "oy": 911,
      "Ġset": 912,
      "arket": 913,
      "In": 914,
      "Ġinst": 915,
      "ident": 916,
      "Ġ|": 917,
      "ener": 918,
      "Ġcar": 919,
      "ĠAn": 920,
      "ĠAnd": 921,
      "Ġsuch": 922,
      "formation": 923,
      "Ġatt": 924,
      "Ġins": 925,
      "Ġ10": 926,
      "ict": 927,
      "cy": 928,
      "Ġmin": 929,
      "Ġdiffe": 930,
      "ited": 931,
      "Ġday": 932,
      "other": 933,
      "omet": 934,
      "Ġtake": 935,
      "ually": 936,
      "Ġlong": 937,
      "Ġ7": 938,
      "Ġ200": 939,
      "Ġhim": 940,
      "Ġinte": 941,
      "Ġrequ": 942,
      "Ġmon": 943,
      "gan": 944,
      "Ġhere": 945,
      "),": 946,
      "rib": 947,
      "Ġche": 948,
      "Ġdoes": 949,
      "ĠNew": 950,
      "ĠIf": 951,
      "Ġloc": 952,
      "io": 953,
      "ug": 954,
      "chool": 955,
      "ĠFor": 956,
      "Ġbeing": 957,
      "Ġagain": 958,
      "ĠSh": 959,
      "ving": 960,
      "Ġass": 961,
      "ax": 962,
      "Ġhome": 963,
      "Ġperson": 964,
      "amp": 965,
      "ner": 966,
      "ale": 967,
      "Ġbusiness": 968,
      "Ġsim": 969,
      "ix": 970,
      "Ġ8": 971,
      "ied": 972,
      "Ġmade": 973,
      "Ġpres": 974,
      "Ġused": 975,
      "Ġthose": 976,
      "rest": 977,
      "Ġwee": 978,
      "Ġshow": 979,
      "Ġbefore": 980,
      "ng": 981,
      "az": 982,
      "Ġend": 983,
      "chn": 984,
      "ason": 985,
      "ollow": 986,
      "gram": 987,
      "ues": 988,
      "Ġreally": 989,
      "ave": 990,
      "pr": 991,
      "co": 992,
      "ved": 993,
      "Ġbel": 994,
      "Ġsur": 995,
      "ss": 996,
      "Ġfam": 997,
      "alk": 998,
      "Ġbr": 999,
      "Ġav": 1000,
      ".\"": 1001,
      "Ġmod": 1002,
      "way": 1003,
      "Ġtrans": 1004,
      "Ġ0": 1005,
      "ouse": 1006,
      "ffect": 1007,
      "atch": 1008,
      "--": 1009,
      "Ġsystem": 1010,
      "Ġdesign": 1011,
      "Ġdevelop": 1012,
      "Ġcall": 1013,
      "Ġexperi": 1014,
      "ines": 1015,
      "ins": 1016,
      "Ġworld": 1017,
      "ash": 1018,
      "âĢ¦": 1019,
      "ĠAl": 1020,
      "pen": 1021,
      "arm": 1022,
      "ize": 1023,
      "Ġ9": 1024,
      "Ġproduct": 1025,
      "Ġhand": 1026,
      "land": 1027,
      "ages": 1028,
      "Ġinformation": 1029,
      "arn": 1030,
      "Ġmed": 1031,
      "ince": 1032,
      "Ġnum": 1033,
      "Ġlife": 1034,
      "ps": 1035,
      "Ġdet": 1036,
      "Ġlast": 1037,
      "Ġsub": 1038,
      "led": 1039,
      "Ġcre": 1040,
      "ality": 1041,
      "We": 1042,
      "Ġart": 1043,
      "self": 1044,
      "ives": 1045,
      "ah": 1046,
      "ather": 1047,
      "read": 1048,
      "akes": 1049,
      "ctions": 1050,
      "Ġpost": 1051,
      "cept": 1052,
      "Ġinter": 1053,
      "ustom": 1054,
      "ene": 1055,
      "ĠSo": 1056,
      "ata": 1057,
      "Ġthough": 1058,
      "Ġgoing": 1059,
      "ever": 1060,
      "Ġwhile": 1061,
      "Ġcur": 1062,
      "oun": 1063,
      "Ġdifferent": 1064,
      "Ġbo": 1065,
      "Ġvis": 1066,
      "Ġgr": 1067,
      "der": 1068,
      "Ġ'": 1069,
      "ĠAr": 1070,
      "Ġlove": 1071,
      "Ġmet": 1072,
      "Ġmem": 1073,
      "imes": 1074,
      "Ġprovid": 1075,
      "Ġeach": 1076,
      "gg": 1077,
      "Ġmarket": 1078,
      "Ġeas": 1079,
      "Ġcomple": 1080,
      "Ġfree": 1081,
      "ional": 1082,
      "Ġbook": 1083,
      "ars": 1084,
      "ĠBe": 1085,
      "ivers": 1086,
      "Ġaround": 1087,
      "Ġsupport": 1088,
      "Ġadv": 1089,
      "10": 1090,
      "ness": 1091,
      "Ġlead": 1092,
      "Ġform": 1093,
      "ĠCl": 1094,
      "Ġcour": 1095,
      "Ġlot": 1096,
      "ublic": 1097,
      "Ġsomet": 1098,
      "Ġpol": 1099,
      "riend": 1100,
      "ĠLe": 1101,
      "Ġsign": 1102,
      "Ġstill": 1103,
      "olut": 1104,
      "Ġfollow": 1105,
      "Ġcle": 1106,
      "Ġcare": 1107,
      "Ġret": 1108,
      "Ġstr": 1109,
      "irect": 1110,
      "unity": 1111,
      "This": 1112,
      "els": 1113,
      "Ġfun": 1114,
      "Ġed": 1115,
      "Ġi": 1116,
      "Ġcount": 1117,
      "ĠAd": 1118,
      "Ġteam": 1119,
      "Ġsame": 1120,
      "Ġaut": 1121,
      "ĠBut": 1122,
      "au": 1123,
      "Ġsk": 1124,
      "ween": 1125,
      "be": 1126,
      "Ġpoint": 1127,
      "ways": 1128,
      "Ġser": 1129,
      "Ġexp": 1130,
      "Ġsl": 1131,
      "Ġplace": 1132,
      "less": 1133,
      "Ġsay": 1134,
      "ittle": 1135,
      "ized": 1136,
      "Ġprocess": 1137,
      "ets": 1138,
      "ock": 1139,
      "Ġprof": 1140,
      "000": 1141,
      "Ġchar": 1142,
      "Ġprogram": 1143,
      "ature": 1144,
      "ves": 1145,
      "Ġchild": 1146,
      "lease": 1147,
      "Ġlist": 1148,
      "ient": 1149,
      "Ġboth": 1150,
      "Ġfound": 1151,
      "Ġdisc": 1152,
      "ĠTe": 1153,
      "Ġext": 1154,
      "Ġtop": 1155,
      "Ġfew": 1156,
      "Wh": 1157,
      "Ġbetween": 1158,
      "man": 1159,
      "ering": 1160,
      "ital": 1161,
      "Ġrep": 1162,
      "ton": 1163,
      "ĠPl": 1164,
      "Ġrun": 1165,
      "Ġty": 1166,
      "Ġimport": 1167,
      "Ġcr": 1168,
      "ĠThey": 1169,
      "ology": 1170,
      "ten": 1171,
      "Ġpur": 1172,
      "Ġhapp": 1173,
      "Ġonline": 1174,
      "ining": 1175,
      "Ġusing": 1176,
      "ired": 1177,
      "ames": 1178,
      "Ġcor": 1179,
      "Ġmonth": 1180,
      "ants": 1181,
      "It": 1182,
      "'re": 1183,
      "ety": 1184,
      "Ġplan": 1185,
      "Ġgener": 1186,
      "ms": 1187,
      "Ġ[": 1188,
      "Ġopt": 1189,
      "orth": 1190,
      "Ġthings": 1191,
      "ody": 1192,
      "Ġvar": 1193,
      "Ġfeel": 1194,
      "rand": 1195,
      "ik": 1196,
      "Ġreal": 1197,
      "Ġlar": 1198,
      "con": 1199,
      "Ġtechn": 1200,
      "Ġfull": 1201,
      "ailable": 1202,
      "thing": 1203,
      "Ġcustom": 1204,
      "Ġhealth": 1205,
      "Ġfact": 1206,
      "tt": 1207,
      "Ġdef": 1208,
      "ĠEx": 1209,
      "Ġkeep": 1210,
      "Ġposs": 1211,
      "ĠQ": 1212,
      "ĠOn": 1213,
      "cl": 1214,
      "gy": 1215,
      "att": 1216,
      "Ġval": 1217,
      "ern": 1218,
      "Ġlittle": 1219,
      "Ġob": 1220,
      "uc": 1221,
      "19": 1222,
      "Ġthree": 1223,
      "ross": 1224,
      "meric": 1225,
      "ĠHow": 1226,
      "Ġpay": 1227,
      "Ġstate": 1228,
      "Ġcompany": 1229,
      "Ġbetter": 1230,
      "Ġide": 1231,
      "iqu": 1232,
      ",\"": 1233,
      "Ġmain": 1234,
      "ield": 1235,
      "Ġresult": 1236,
      "ĠThere": 1237,
      "Ġtry": 1238,
      "oney": 1239,
      "Ġappro": 1240,
      "Ġschool": 1241,
      "iving": 1242,
      "Ġpartic": 1243,
      "Ġalways": 1244,
      "ically": 1245,
      "Ġfil": 1246,
      "stand": 1247,
      "Ġinterest": 1248,
      "Ġiss": 1249,
      "Ġpat": 1250,
      "Ġopen": 1251,
      "ĠInd": 1252,
      "Ġduring": 1253,
      "uss": 1254,
      "vern": 1255,
      "ware": 1256,
      "Ġref": 1257,
      "Ġexam": 1258,
      "Ġreport": 1259,
      "bers": 1260,
      "ier": 1261,
      "Ġ12": 1262,
      "ows": 1263,
      "Ġexperience": 1264,
      "Ġcome": 1265,
      "reen": 1266,
      "Ġsmall": 1267,
      "ists": 1268,
      "Ġrest": 1269,
      "oot": 1270,
      "Ġcent": 1271,
      "ute": 1272,
      "ined": 1273,
      "Ġput": 1274,
      "Ġint": 1275,
      "Ġsure": 1276,
      "ished": 1277,
      "loy": 1278,
      "Ġsomething": 1279,
      "Ġavailable": 1280,
      "Ġdri": 1281,
      "Ġquest": 1282,
      "Ġwithout": 1283,
      "Ġmight": 1284,
      "Ġgame": 1285,
      "me": 1286,
      "the": 1287,
      "Ġresp": 1288,
      "ention": 1289,
      "Ġdist": 1290,
      ".âĢĿ": 1291,
      "Ġeffect": 1292,
      "ural": 1293,
      "Ġbuild": 1294,
      "Ġmust": 1295,
      "ery": 1296,
      "Ġbig": 1297,
      "Ġfriend": 1298,
      "rist": 1299,
      "cent": 1300,
      "roup": 1301,
      "Ġdata": 1302,
      "Ġwater": 1303,
      "Ġservice": 1304,
      "ertain": 1305,
      "Ġcontin": 1306,
      "Ġpri": 1307,
      "Ġgot": 1308,
      "Ġ.": 1309,
      "ared": 1310,
      "aut": 1311,
      "Ġproble": 1312,
      "'m": 1313,
      "ER": 1314,
      "Re": 1315,
      "Ġfamily": 1316,
      "ĠTo": 1317,
      "ling": 1318,
      "Ġnumber": 1319,
      "Ġproject": 1320,
      "ral": 1321,
      "ĠAmeric": 1322,
      "Ġconf": 1323,
      "Ġtri": 1324,
      "ĠÂ": 1325,
      "aj": 1326,
      "Ġorgan": 1327,
      "Ġnext": 1328,
      "Ġstand": 1329,
      "Ġanother": 1330,
      "Ġhard": 1331,
      "Ġcost": 1332,
      "Ġinf": 1333,
      "ploy": 1334,
      "Ġimportant": 1335,
      "ĠPh": 1336,
      "Ġwr": 1337,
      "50": 1338,
      "Ġincluding": 1339,
      "Ġclass": 1340,
      "Ġpass": 1341,
      "Ġsince": 1342,
      "Ġblo": 1343,
      "oh": 1344,
      "Ġnever": 1345,
      "orn": 1346,
      "ards": 1347,
      "Ġincre": 1348,
      "__": 1349,
      "Ġable": 1350,
      "ĠCon": 1351,
      "ĠAll": 1352,
      "12": 1353,
      "'ve": 1354,
      "Ġve": 1355,
      "ccess": 1356,
      "ĠShe": 1357,
      "iversity": 1358,
      "Ġ/": 1359,
      "Ġopp": 1360,
      "ĠCol": 1361,
      "Ġtest": 1362,
      "Ġhead": 1363,
      "Ġwebs": 1364,
      "!!": 1365,
      "Ġperform": 1366,
      "Ġweek": 1367,
      "Ġsecond": 1368,
      "Ġfr": 1369,
      "ately": 1370,
      "ision": 1371,
      "Ġgive": 1372,
      "Ġlevel": 1373,
      "ior": 1374,
      "ember": 1375,
      "ĠMan": 1376,
      "eng": 1377,
      "ism": 1378,
      "load": 1379,
      "ĠTr": 1380,
      "ĠZ": 1381,
      "Ġold": 1382,
      "ted": 1383,
      "ote": 1384,
      "ĠBl": 1385,
      "Ġrece": 1386,
      "pend": 1387,
      "Ġsit": 1388,
      "Ġinvest": 1389,
      "Ġmov": 1390,
      "Ġspec": 1391,
      "gin": 1392,
      "Ġpos": 1393,
      "ats": 1394,
      "raph": 1395,
      "rol": 1396,
      "ration": 1397,
      "Ġdays": 1398,
      "rence": 1399,
      "ĠUS": 1400,
      "ffic": 1401,
      "ĠFr": 1402,
      "ĠIs": 1403,
      "Ġproper": 1404,
      "ator": 1405,
      "Ġwom": 1406,
      "Ġpower": 1407,
      "Ġbro": 1408,
      "Ġask": 1409,
      "ases": 1410,
      "outh": 1411,
      "Ġear": 1412,
      "Ġmill": 1413,
      "Ġequ": 1414,
      "ruct": 1415,
      "âĢľ": 1416,
      "Ġeng": 1417,
      "Ġprovide": 1418,
      "Ġmus": 1419,
      "orm": 1420,
      "ina": 1421,
      "Ġrese": 1422,
      "Ġless": 1423,
      "If": 1424,
      "Ġgrow": 1425,
      "ients": 1426,
      "Ġjob": 1427,
      "omm": 1428,
      "Ġservices": 1429,
      "Ġdirect": 1430,
      "Ġwithin": 1431,
      "ours": 1432,
      "ency": 1433,
      "ivid": 1434,
      "ann": 1435,
      "Ġel": 1436,
      "Ġorder": 1437,
      "ems": 1438,
      "ense": 1439,
      "Ġcurrent": 1440,
      "ium": 1441,
      "Ġ18": 1442,
      "ok": 1443,
      "ĠRes": 1444,
      "Ġwin": 1445,
      "11": 1446,
      "ron": 1447,
      "Ġsite": 1448,
      "pos": 1449,
      "by": 1450,
      "Ġbre": 1451,
      "Ġaddition": 1452,
      "IN": 1453,
      "Ġoper": 1454,
      "Ġroom": 1455,
      "Ġmoney": 1456,
      "uck": 1457,
      "icle": 1458,
      "pping": 1459,
      "Ġarea": 1460,
      "ump": 1461,
      "Ġexpl": 1462,
      "Ġdi": 1463,
      "30": 1464,
      "ĠâĢĶ": 1465,
      "Ġlight": 1466,
      "Ġpublic": 1467,
      "Ġlet": 1468,
      "ably": 1469,
      "ider": 1470,
      "cing": 1471,
      "here": 1472,
      "Ġview": 1473,
      "ode": 1474,
      "Ġlooking": 1475,
      "You": 1476,
      "ĠSp": 1477,
      "Ġintern": 1478,
      "ered": 1479,
      "Ġaccess": 1480,
      "inal": 1481,
      "Ġest": 1482,
      "Ġ11": 1483,
      "mber": 1484,
      "Ġreview": 1485,
      "Ġbelie": 1486,
      "Ġfood": 1487,
      "oint": 1488,
      "agement": 1489,
      "'ll": 1490,
      "ĠComm": 1491,
      "ird": 1492,
      "ope": 1493,
      "ids": 1494,
      "ex": 1495,
      "tain": 1496,
      "Ġworking": 1497,
      "Ġgl": 1498,
      "ories": 1499,
      "ified": 1500,
      "ec": 1501,
      "Ġbuy": 1502,
      "21": 1503,
      "Ġmaking": 1504,
      "br": 1505,
      "Ġmeet": 1506,
      "ently": 1507,
      "ĠOr": 1508,
      "ott": 1509,
      "Ġtoday": 1510,
      "iron": 1511,
      "Ġagainst": 1512,
      "Ġsing": 1513,
      "Ġpop": 1514,
      "joy": 1515,
      "Ġprev": 1516,
      "atter": 1517,
      "ym": 1518,
      "sh": 1519,
      "Ġsal": 1520,
      "of": 1521,
      "Ġprote": 1522,
      "Ġwrit": 1523,
      "Ġcase": 1524,
      "ley": 1525,
      "ript": 1526,
      "Ġspecial": 1527,
      "Ġca": 1528,
      "ission": 1529,
      "Ġconc": 1530,
      "Ġcap": 1531,
      "Ġunderstand": 1532,
      "Ġprom": 1533,
      "ised": 1534,
      "por": 1535,
      "work": 1536,
      "ills": 1537,
      "Ġlaw": 1538,
      "Ġtru": 1539,
      "med": 1540,
      "ĠThat": 1541,
      "âĢĶ": 1542,
      "lection": 1543,
      "Ġthing": 1544,
      "Ġvide": 1545,
      "Ġaway": 1546,
      "ĠSc": 1547,
      "Ġcheck": 1548,
      "gr": 1549,
      "Ġ15": 1550,
      "Ġphot": 1551,
      "Ġbas": 1552,
      "ability": 1553,
      "He": 1554,
      "bo": 1555,
      "ential": 1556,
      "iting": 1557,
      "Ġturn": 1558,
      "Ġwhy": 1559,
      "min": 1560,
      "Ġann": 1561,
      "Ġwebsite": 1562,
      "lish": 1563,
      "ream": 1564,
      "Ġstudents": 1565,
      "Ġapplic": 1566,
      "let": 1567,
      "ization": 1568,
      "ee": 1569,
      "hor": 1570,
      "tend": 1571,
      "ĠWith": 1572,
      "Ġkind": 1573,
      "ger": 1574,
      "ĠCan": 1575,
      "Ġconst": 1576,
      "aring": 1577,
      "Ġchange": 1578,
      "Ġdem": 1579,
      "Ġprofess": 1580,
      "Ġcourse": 1581,
      "ON": 1582,
      "Ġpresent": 1583,
      "ify": 1584,
      "Ġimpro": 1585,
      "vernment": 1586,
      "Ġleg": 1587,
      "ret": 1588,
      "pped": 1589,
      "part": 1590,
      "Ġpract": 1591,
      "ĠMay": 1592,
      "Ġpa": 1593,
      "Ġlarge": 1594,
      "St": 1595,
      "ails": 1596,
      "room": 1597,
      "enef": 1598,
      "ged": 1599,
      "ury": 1600,
      "Ġchang": 1601,
      "Ġsays": 1602,
      "ĠNo": 1603,
      "Ġhouse": 1604,
      "Ġhum": 1605,
      "ĠCent": 1606,
      "Ġunt": 1607,
      ".,": 1608,
      "Ġindust": 1609,
      "ĠMar": 1610,
      "Ġterm": 1611,
      "Ġhaving": 1612,
      "Ġchildren": 1613,
      "Ġlocal": 1614,
      "une": 1615,
      "Ġfour": 1616,
      "Ġfac": 1617,
      "ots": 1618,
      "Ġcomplete": 1619,
      "AT": 1620,
      "Ġess": 1621,
      "aterial": 1622,
      "ateg": 1623,
      "ney": 1624,
      "ains": 1625,
      "Ġair": 1626,
      "ino": 1627,
      "Ġallow": 1628,
      "uro": 1629,
      "ĠPr": 1630,
      "ĠCo": 1631,
      "Ġ#": 1632,
      "Ġoffer": 1633,
      "Ġquality": 1634,
      "Ġ30": 1635,
      "Ġ:": 1636,
      "ĠChrist": 1637,
      "ising": 1638,
      "itions": 1639,
      "Ġproducts": 1640,
      "ane": 1641,
      "Ġactiv": 1642,
      "Ġaccount": 1643,
      "ording": 1644,
      "ĠRep": 1645,
      "Ġbeh": 1646,
      "As": 1647,
      "ividual": 1648,
      "Ġtimes": 1649,
      "soci": 1650,
      "Ġcond": 1651,
      "conom": 1652,
      "iven": 1653,
      "Ġdev": 1654,
      "arent": 1655,
      "Ġemploy": 1656,
      "aster": 1657,
      "RE": 1658,
      "Ġword": 1659,
      "Ġtrad": 1660,
      "Ġhist": 1661,
      "Ġnight": 1662,
      "ocus": 1663,
      "ries": 1664,
      "eb": 1665,
      "Ġnear": 1666,
      "ĠEng": 1667,
      "Ġname": 1668,
      "Ġactually": 1669,
      "itive": 1670,
      "Ġlearn": 1671,
      "Ġexpect": 1672,
      "enn": 1673,
      "Ġsuccess": 1674,
      "Ġeasy": 1675,
      "Ġcertain": 1676,
      "Ġpast": 1677,
      "urs": 1678,
      "Ġline": 1679,
      "rap": 1680,
      "Ġalong": 1681,
      "Ġneeds": 1682,
      "Ġenjoy": 1683,
      "fer": 1684,
      "Ġoften": 1685,
      "Ġla": 1686,
      "ĠWhen": 1687,
      "ĠWhat": 1688,
      ",âĢĿ": 1689,
      "anks": 1690,
      "Ġtoget": 1691,
      "Ġconne": 1692,
      "Ġtogether": 1693,
      "ready": 1694,
      "Ġresearch": 1695,
      "15": 1696,
      "ĠApp": 1697,
      "utes": 1698,
      "ajor": 1699,
      "Ġgroup": 1700,
      "atures": 1701,
      "Ġcreat": 1702,
      "Ġdra": 1703,
      "Ġuntil": 1704,
      "Ġbit": 1705,
      "veral": 1706,
      "Ġtreat": 1707,
      "ination": 1708,
      "Ġsw": 1709,
      "fort": 1710,
      "Ġes": 1711,
      "ĠCar": 1712,
      "augh": 1713,
      "sc": 1714,
      "Ġpossible": 1715,
      "Ġevent": 1716,
      "side": 1717,
      "ĠUniversity": 1718,
      "lling": 1719,
      "Ġdone": 1720,
      "ique": 1721,
      "Ġgetting": 1722,
      "yle": 1723,
      "ww": 1724,
      "22": 1725,
      "olution": 1726,
      "Ġshort": 1727,
      "ĠAt": 1728,
      "Ġmakes": 1729,
      "ĠMy": 1730,
      "Ġbenef": 1731,
      "ush": 1732,
      "Ġpain": 1733,
      "Ġbased": 1734,
      "Ġindividual": 1735,
      "hod": 1736,
      "Ġelect": 1737,
      "duct": 1738,
      "Ġhot": 1739,
      "Ġenough": 1740,
      "Ġ...": 1741,
      "Ġmove": 1742,
      "lege": 1743,
      "ived": 1744,
      "Ġinclude": 1745,
      "ĠAm": 1746,
      "book": 1747,
      "Ġdidn": 1748,
      "Ġclo": 1749,
      "ohn": 1750,
      "Ġleft": 1751,
      "Ġcommunity": 1752,
      "Ġever": 1753,
      "oice": 1754,
      "Ġprice": 1755,
      "Ġcou": 1756,
      "Ġalready": 1757,
      "aim": 1758,
      "AN": 1759,
      "Ġside": 1760,
      "ĠRo": 1761,
      "Ġmar": 1762,
      "Ġanal": 1763,
      "Ġpot": 1764,
      "ĠFl": 1765,
      "Ġmeans": 1766,
      "irl": 1767,
      "Ġseason": 1768,
      "Ġtalk": 1769,
      "app": 1770,
      "ai": 1771,
      "Ġbecome": 1772,
      "Ġcontrol": 1773,
      "Ġdeal": 1774,
      "aff": 1775,
      "viron": 1776,
      "ĠGod": 1777,
      "Ġseveral": 1778,
      "ST": 1779,
      "Ġfar": 1780,
      "ured": 1781,
      "cu": 1782,
      "Ġfollowing": 1783,
      "Ġdoing": 1784,
      "Ġvisit": 1785,
      "Ġpersonal": 1786,
      "14": 1787,
      "Ġsoft": 1788,
      "Ġbody": 1789,
      "uper": 1790,
      "Ġrequire": 1791,
      "What": 1792,
      "Ġlive": 1793,
      "Ġlow": 1794,
      "Ġmaterial": 1795,
      "Ġmean": 1796,
      "Ġbeaut": 1797,
      "Ġfocus": 1798,
      "Ġnon": 1799,
      "alf": 1800,
      "son": 1801,
      "13": 1802,
      "uture": 1803,
      "pro": 1804,
      "18": 1805,
      "yn": 1806,
      "Ġfore": 1807,
      "Ġothers": 1808,
      "ither": 1809,
      "Ġet": 1810,
      "orts": 1811,
      "ances": 1812,
      "Ġ14": 1813,
      "ides": 1814,
      "Ġsocial": 1815,
      "Ġmult": 1816,
      "ips": 1817,
      "Ġstory": 1818,
      "ĠComp": 1819,
      "Ġtyp": 1820,
      "Ġocc": 1821,
      "16": 1822,
      "Ġfund": 1823,
      "ead": 1824,
      "Ġ16": 1825,
      "Ġlim": 1826,
      "An": 1827,
      "ĠCont": 1828,
      "ĠMed": 1829,
      "Ġquick": 1830,
      "Ġcountry": 1831,
      "Ġcreate": 1832,
      "Ġmajor": 1833,
      "cript": 1834,
      "Ġfav": 1835,
      "acy": 1836,
      "Ġmind": 1837,
      "err": 1838,
      "ches": 1839,
      "Ġce": 1840,
      "Ġcomes": 1841,
      "cially": 1842,
      "Ġmen": 1843,
      "Ġtre": 1844,
      "oose": 1845,
      "Ġmembers": 1846,
      "Ġeduc": 1847,
      "osed": 1848,
      "ource": 1849,
      "Ch": 1850,
      "Ġnet": 1851,
      "ape": 1852,
      "uff": 1853,
      "ored": 1854,
      "Ġ,": 1855,
      "ĠX": 1856,
      "ĠServ": 1857,
      "Ġlink": 1858,
      "atic": 1859,
      "Ġopport": 1860,
      "Ġrecord": 1861,
      "rop": 1862,
      "For": 1863,
      "Ġperfect": 1864,
      "urity": 1865,
      "Ġago": 1866,
      "upp": 1867,
      "Ġpage": 1868,
      "sw": 1869,
      "Ġleast": 1870,
      "ĠDo": 1871,
      "Ġspecific": 1872,
      "icy": 1873,
      "idd": 1874,
      "ones": 1875,
      "Ġparticular": 1876,
      "AR": 1877,
      "Ġdoesn": 1878,
      "bal": 1879,
      "Ġwomen": 1880,
      "Ġdevelopment": 1881,
      "Ġexample": 1882,
      "Ġoffic": 1883,
      "Ġvideo": 1884,
      "ribut": 1885,
      "Ġland": 1886,
      "Ġcalled": 1887,
      "Ġhold": 1888,
      "Ġcontact": 1889,
      "Ġsol": 1890,
      "ully": 1891,
      "Ġproblem": 1892,
      "Ġvari": 1893,
      "Ġmonths": 1894,
      "ĠâĢĺ": 1895,
      "ĠEn": 1896,
      "ister": 1897,
      "anies": 1898,
      "Ġthought": 1899,
      "most": 1900,
      "urther": 1901,
      "Ġnews": 1902,
      "ĠSte": 1903,
      "Ġele": 1904,
      "Ġvers": 1905,
      "Ġmil": 1906,
      "uf": 1907,
      "Ġstudy": 1908,
      "wards": 1909,
      "How": 1910,
      "Ġacross": 1911,
      "vironment": 1912,
      "de": 1913,
      "aps": 1914,
      "go": 1915,
      "ĠThese": 1916,
      "Ġtem": 1917,
      "Ġreason": 1918,
      "Ġredu": 1919,
      "ift": 1920,
      "Ġclear": 1921,
      "ĠNe": 1922,
      "unic": 1923,
      "ograph": 1924,
      "Ġ13": 1925,
      "17": 1926,
      "cer": 1927,
      "Ġonce": 1928,
      "ĠYour": 1929,
      "Ġmom": 1930,
      "Ġclean": 1931,
      "Ġgovernment": 1932,
      "Ġcamp": 1933,
      "Ġwa": 1934,
      "Ġstay": 1935,
      "ford": 1936,
      "ĠBr": 1937,
      "Ġkey": 1938,
      "There": 1939,
      "Ġcharact": 1940,
      "oring": 1941,
      "isk": 1942,
      "ources": 1943,
      "ĠGu": 1944,
      "verage": 1945,
      "cle": 1946,
      "Ġmusic": 1947,
      "Ġgames": 1948,
      "lished": 1949,
      "iday": 1950,
      "Ġreturn": 1951,
      "gle": 1952,
      "Ġmillion": 1953,
      "Ġshare": 1954,
      "Ġcame": 1955,
      "ĠMe": 1956,
      "Ġhig": 1957,
      "Ġcity": 1958,
      "Ġ17": 1959,
      "Ġstarted": 1960,
      "ĠWor": 1961,
      "Ġpar": 1962,
      "ges": 1963,
      "Ġfuture": 1964,
      "vert": 1965,
      "Ġpurch": 1966,
      "osp": 1967,
      "Ġweb": 1968,
      "lf": 1969,
      "Ġhappen": 1970,
      "Ġstep": 1971,
      "Ġyet": 1972,
      "not": 1973,
      "Ġinvol": 1974,
      "Ġhours": 1975,
      "----": 1976,
      "ference": 1977,
      "OR": 1978,
      "ched": 1979,
      "Ġyoung": 1980,
      "Ġ199": 1981,
      "ners": 1982,
      "âĢĵ": 1983,
      "che": 1984,
      "ilities": 1985,
      "ĠInst": 1986,
      "ulation": 1987,
      "ler": 1988,
      "ancial": 1989,
      "ights": 1990,
      "Ġeconom": 1991,
      "ences": 1992,
      "Ġwon": 1993,
      "par": 1994,
      "ĠChe": 1995,
      "Ġste": 1996,
      "Ġorig": 1997,
      "Ġmethod": 1998,
      "ster": 1999,
      "cell": 2000,
      "Ġtool": 2001,
      "ĠIntern": 2002,
      "Ġsum": 2003,
      "ball": 2004,
      "Ġrecomm": 2005,
      "Ġ24": 2006,
      "af": 2007,
      "ilar": 2008,
      "Ġcompet": 2009,
      "ĠOne": 2010,
      "Ġfriends": 2011,
      "Ġrecommend": 2012,
      "Ġdr": 2013,
      "Ġstrong": 2014,
      "Ġtell": 2015,
      "ĠHowever": 2016,
      "ply": 2017,
      "Ġcut": 2018,
      "Ġprob": 2019,
      "Ġtot": 2020,
      "Ġident": 2021,
      "ians": 2022,
      "Ġpack": 2023,
      "ĠDes": 2024,
      "Ġwind": 2025,
      "Ġ100": 2026,
      "ĠBo": 2027,
      "gs": 2028,
      "Ġey": 2029,
      "Ġspace": 2030,
      "Ġindustry": 2031,
      "hers": 2032,
      "....": 2033,
      "Ġclose": 2034,
      "Ġdeli": 2035,
      "ĠJan": 2036,
      "back": 2037,
      "ĠAmerican": 2038,
      "ilt": 2039,
      "ĠJohn": 2040,
      "Ġz": 2041,
      "redit": 2042,
      "Ġmach": 2043,
      "resent": 2044,
      "Ġsingle": 2045,
      "Ġbring": 2046,
      "aken": 2047,
      "Ġtook": 2048,
      "//": 2049,
      "arr": 2050,
      "Ġpriv": 2051,
      "aces": 2052,
      "Ġbegin": 2053,
      "Ġeverything": 2054,
      "unch": 2055,
      "Ġdiscuss": 2056,
      "Ġwent": 2057,
      "Ġens": 2058,
      "iod": 2059,
      "Ġbed": 2060,
      "ĠTra": 2061,
      "ES": 2062,
      "now": 2063,
      "dd": 2064,
      "Ġant": 2065,
      "ental": 2066,
      "ĠQu": 2067,
      "Ġwond": 2068,
      "Ġsomeone": 2069,
      "On": 2070,
      "urance": 2071,
      "Ġtype": 2072,
      "Ġfield": 2073,
      "reet": 2074,
      "iful": 2075,
      "Ġcompanies": 2076,
      "**": 2077,
      "Ġamount": 2078,
      "EN": 2079,
      "ufact": 2080,
      "Ġconsider": 2081,
      "Ġcomb": 2082,
      "Ġpress": 2083,
      "Ġheart": 2084,
      "ĠNot": 2085,
      "25": 2086,
      "Ġ25": 2087,
      "Ġearly": 2088,
      "Ġ2017": 2089,
      "Ġpick": 2090,
      "ĠIm": 2091,
      "AL": 2092,
      "Ġsound": 2093,
      "Ġhope": 2094,
      "Ġdue": 2095,
      "Ġchall": 2096,
      "Ġwalk": 2097,
      "idence": 2098,
      "Ġtax": 2099,
      "ĠState": 2100,
      "Ġgiven": 2101,
      "atural": 2102,
      "ctor": 2103,
      "Ġbrand": 2104,
      "Ġquestion": 2105,
      "irt": 2106,
      "Ġresults": 2107,
      "Ġstore": 2108,
      "Ġcook": 2109,
      "obile": 2110,
      "Ġoffers": 2111,
      "Ġ2012": 2112,
      "eral": 2113,
      "Ġ2018": 2114,
      "Ġbelow": 2115,
      "ille": 2116,
      "rew": 2117,
      "osted": 2118,
      "Ġrele": 2119,
      "Ġbreak": 2120,
      "Ġener": 2121,
      "Ġsearch": 2122,
      "ili": 2123,
      "ites": 2124,
      "cks": 2125,
      "pecially": 2126,
      "Ġmot": 2127,
      "Ġexc": 2128,
      "Ġvalue": 2129,
      "uation": 2130,
      "Ġport": 2131,
      "yl": 2132,
      "Ġknown": 2133,
      "crib": 2134,
      "ĠOur": 2135,
      "Ġvol": 2136,
      "Ġappear": 2137,
      "Ġcal": 2138,
      "Ġlater": 2139,
      "ĠUnited": 2140,
      "Ġpict": 2141,
      "fic": 2142,
      "Ġcontent": 2143,
      "ĠMin": 2144,
      "aur": 2145,
      "Ġseen": 2146,
      "though": 2147,
      "Ġissues": 2148,
      "Ġrepl": 2149,
      "Ġfre": 2150,
      "rict": 2151,
      "ensive": 2152,
      "ibility": 2153,
      "Ġwhole": 2154,
      "Ġ2013": 2155,
      "Ġtaking": 2156,
      "Ġrelations": 2157,
      "Ġfeatures": 2158,
      "ask": 2159,
      "Ġjo": 2160,
      "Ġabove": 2161,
      "://": 2162,
      "illed": 2163,
      "irm": 2164,
      "Ġaddress": 2165,
      "Ġwhether": 2166,
      "Ġworks": 2167,
      "Ġcra": 2168,
      "Ġpie": 2169,
      "Ġwriting": 2170,
      "Ġbelieve": 2171,
      "Ġminutes": 2172,
      "ourn": 2173,
      "ĠMore": 2174,
      "Ġidea": 2175,
      "ĠCount": 2176,
      "Ġface": 2177,
      "urch": 2178,
      "come": 2179,
      "Ġamong": 2180,
      "wh": 2181,
      "Ġanything": 2182,
      "vent": 2183,
      "ledge": 2184,
      "oon": 2185,
      "Ġmess": 2186,
      "Ġrespons": 2187,
      "ĠCity": 2188,
      "ĠAb": 2189,
      "Ġinstall": 2190,
      "Ġhuman": 2191,
      "Ġfive": 2192,
      "Ġauthor": 2193,
      "lex": 2194,
      "Ġvarious": 2195,
      "Ġcas": 2196,
      "ĠGr": 2197,
      "Ġimprove": 2198,
      "Ġenc": 2199,
      "Ġcard": 2200,
      "rodu": 2201,
      "Ġcommon": 2202,
      "ED": 2203,
      "ĠEuro": 2204,
      "Ġquestions": 2205,
      "ison": 2206,
      "Ġrange": 2207,
      "ony": 2208,
      "Ġsugg": 2209,
      "200": 2210,
      "Ġsuggest": 2211,
      "imate": 2212,
      "Ġmanag": 2213,
      "ume": 2214,
      "When": 2215,
      "So": 2216,
      "nder": 2217,
      "fully": 2218,
      "ĠBro": 2219,
      "Ġclaim": 2220,
      "ĠCal": 2221,
      "Ġpercent": 2222,
      "IC": 2223,
      "abor": 2224,
      "ĠGo": 2225,
      "iously": 2226,
      "asing": 2227,
      "Ġmedia": 2228,
      "ogn": 2229,
      "ĠOct": 2230,
      "Ġbad": 2231,
      "umb": 2232,
      "Ġenvironment": 2233,
      "Ġx": 2234,
      "rain": 2235,
      "Ġtravel": 2236,
      "Ġeither": 2237,
      "Ġtechnology": 2238,
      "Ġbar": 2239,
      "Ġfront": 2240,
      "Ġupd": 2241,
      "agn": 2242,
      "Ġmanagement": 2243,
      "Ġwatch": 2244,
      "Ġ2014": 2245,
      "IT": 2246,
      "Ġquite": 2247,
      "ĠDis": 2248,
      "Sh": 2249,
      "Ġbuilding": 2250,
      "Ġcult": 2251,
      "Ġsimple": 2252,
      "Ġperiod": 2253,
      "lobal": 2254,
      "astic": 2255,
      "Ġcustomers": 2256,
      "Ġage": 2257,
      "ided": 2258,
      "Ġseem": 2259,
      "Ġcomput": 2260,
      "Ġhistory": 2261,
      "arning": 2262,
      "gest": 2263,
      "ruction": 2264,
      "iver": 2265,
      "Ġ50": 2266,
      "Ġtold": 2267,
      "atur": 2268,
      "uly": 2269,
      "Ġcell": 2270,
      "And": 2271,
      "Ġ2016": 2272,
      "uary": 2273,
      "Ġdownload": 2274,
      "Ġphys": 2275,
      "ĠEm": 2276,
      "Ġmeas": 2277,
      "pril": 2278,
      "Ġ2020": 2279,
      "Ġmor": 2280,
      "ators": 2281,
      "AS": 2282,
      "ung": 2283,
      "Ġemail": 2284,
      "ficult": 2285,
      "Ġfurther": 2286,
      "Ġenergy": 2287,
      "ained": 2288,
      "earch": 2289,
      "Ġdig": 2290,
      "ued": 2291,
      "Ġ2019": 2292,
      "Ġseries": 2293,
      "ĠPart": 2294,
      "omes": 2295,
      "Ġeveryone": 2296,
      "play": 2297,
      "elt": 2298,
      "Ġfall": 2299,
      "Ġsimply": 2300,
      "Ġsignific": 2301,
      "Ġsize": 2302,
      "ĠEd": 2303,
      "Ġsci": 2304,
      "Ġoil": 2305,
      "Ġassist": 2306,
      "ĠPol": 2307,
      "Ġdel": 2308,
      "ĠBy": 2309,
      "Ġhalf": 2310,
      "Ġplease": 2311,
      "Ġcrit": 2312,
      "chie": 2313,
      "ĠSchool": 2314,
      "Ġaud": 2315,
      "Ġhowever": 2316,
      "ID": 2317,
      "ĠSm": 2318,
      "ober": 2319,
      "Ġflo": 2320,
      "ĠAug": 2321,
      "Ġ--": 2322,
      "ging": 2323,
      "ĠTw": 2324,
      "ively": 2325,
      "Ġmiss": 2326,
      "Ġtraining": 2327,
      "itted": 2328,
      "selves": 2329,
      "ĠNews": 2330,
      "Ġdou": 2331,
      "Ġtrying": 2332,
      "Ġprovides": 2333,
      "Ġpret": 2334,
      "Ġdifficult": 2335,
      "Ġrequired": 2336,
      "Ġpub": 2337,
      "roll": 2338,
      "ification": 2339,
      "Ġprofessional": 2340,
      "Ġdefin": 2341,
      "AC": 2342,
      "icro": 2343,
      "angu": 2344,
      "Ġespecially": 2345,
      "Ġneeded": 2346,
      "Ġalmost": 2347,
      "Ġproperty": 2348,
      "Ġeff": 2349,
      "Ġentire": 2350,
      "ires": 2351,
      "Ġlikely": 2352,
      "itch": 2353,
      "40": 2354,
      "ands": 2355,
      "ĠPe": 2356,
      "Ġposition": 2357,
      "ĠSec": 2358,
      "ĠPM": 2359,
      "ples": 2360,
      "ĠAfter": 2361,
      "Ġperformance": 2362,
      "Ġblack": 2363,
      "Ġprobably": 2364,
      "Ġansw": 2365,
      "Ġself": 2366,
      "Ġnecess": 2367,
      "ĠPre": 2368,
      "Ġabs": 2369,
      "Ġgirl": 2370,
      "resh": 2371,
      "ĠSouth": 2372,
      "Ġdeb": 2373,
      "Ġareas": 2374,
      "Ġhy": 2375,
      "ried": 2376,
      "ops": 2377,
      "ises": 2378,
      "IS": 2379,
      "ada": 2380,
      "Ġfunction": 2381,
      "ĠPer": 2382,
      "Ġstaff": 2383,
      "Ġpolit": 2384,
      "Ġfavor": 2385,
      "iam": 2386,
      "Ġspend": 2387,
      "60": 2388,
      "do": 2389,
      "Ġissue": 2390,
      "Ġengine": 2391,
      "ĠWorld": 2392,
      "ibr": 2393,
      "aching": 2394,
      "Ġbeautiful": 2395,
      "unities": 2396,
      "Ġoptions": 2397,
      "Ġextra": 2398,
      "Ġrelationship": 2399,
      "Al": 2400,
      "Ġpretty": 2401,
      "oogle": 2402,
      "Ġagree": 2403,
      "my": 2404,
      "ipment": 2405,
      "Ġcir": 2406,
      "Ġliving": 2407,
      "time": 2408,
      "gress": 2409,
      "Ġtext": 2410,
      "Ġpaper": 2411,
      "____": 2412,
      "val": 2413,
      "itor": 2414,
      "used": 2415,
      "Ġarticle": 2416,
      "Ġfinancial": 2417,
      "Ġparent": 2418,
      "Ġoffice": 2419,
      "oid": 2420,
      "Ġpoints": 2421,
      "Ġisn": 2422,
      "ĠYork": 2423,
      "Ġyourself": 2424,
      "99": 2425,
      "ĠEurope": 2426,
      "ĠAust": 2427,
      "ze": 2428,
      "Ġelse": 2429,
      "Ġsoon": 2430,
      "itc": 2431,
      "Ġ2015": 2432,
      "ĠPark": 2433,
      "Ġcoming": 2434,
      "ĠKe": 2435,
      "Ġproblems": 2436,
      "Ġadded": 2437,
      "ox": 2438,
      "reme": 2439,
      "eth": 2440,
      "ĠDr": 2441,
      "ole": 2442,
      "ially": 2443,
      "Ġimpact": 2444,
      "ables": 2445,
      "Ġnice": 2446,
      "ĠBu": 2447,
      "itional": 2448,
      "Pro": 2449,
      "Ġways": 2450,
      "ĠMc": 2451,
      "Ġprotect": 2452,
      "Ġconnect": 2453,
      "Ġsimilar": 2454,
      "Ġbill": 2455,
      "Ġfoot": 2456,
      "Ġselect": 2457,
      "ĠCor": 2458,
      "Ġsoftware": 2459,
      "Ġblog": 2460,
      "ana": 2461,
      "Ġdocu": 2462,
      "apt": 2463,
      "Ġreading": 2464,
      "Ġ>": 2465,
      "Ġinit": 2466,
      "ĠPres": 2467,
      "80": 2468,
      "Ġtaken": 2469,
      "Ġut": 2470,
      "ĠUs": 2471,
      "Ġ2011": 2472,
      "Ġpopular": 2473,
      "ĠMarch": 2474,
      "Ġwanted": 2475,
      "ĠNorth": 2476,
      "ptember": 2477,
      "Ġsignificant": 2478,
      "Ġtable": 2479,
      "But": 2480,
      "Ġparticip": 2481,
      "aily": 2482,
      "Ġdam": 2483,
      "Ġfilm": 2484,
      "Ġsent": 2485,
      "Ġetc": 2486,
      "Ġmanufact": 2487,
      "Ġdeterm": 2488,
      "ĠHealth": 2489,
      "lu": 2490,
      "ĠAg": 2491,
      "Ġmodel": 2492,
      "ĠWill": 2493,
      "ience": 2494,
      "ysis": 2495,
      "Ġrisk": 2496,
      "Ġpric": 2497,
      "Ġrather": 2498,
      "Ġprep": 2499,
      "Ġthird": 2500,
      "head": 2501,
      "ring": 2502,
      "ĠNational": 2503,
      "ĠInc": 2504,
      "ovember": 2505,
      "Ġexist": 2506,
      "rie": 2507,
      "Ġchoose": 2508,
      "ĠFeb": 2509,
      "Ġphone": 2510,
      "ĠStud": 2511,
      "'d": 2512,
      "ĠAf": 2513,
      "ĠDep": 2514,
      "rs": 2515,
      "ĠSpe": 2516,
      "Ġwide": 2517,
      "To": 2518,
      "Ġregard": 2519,
      "ĠArt": 2520,
      "24": 2521,
      "ĠJune": 2522,
      "Ġmatter": 2523,
      "arget": 2524,
      "ules": 2525,
      "izing": 2526,
      "Ġincrease": 2527,
      "uge": 2528,
      "Ġconsum": 2529,
      "Ġcontinue": 2530,
      "atest": 2531,
      "edd": 2532,
      "Ġcrus": 2533,
      "itut": 2534,
      "reg": 2535,
      "itten": 2536,
      "ades": 2537,
      "minist": 2538,
      "itting": 2539,
      "Ġwhite": 2540,
      "anced": 2541,
      "Ġusually": 2542,
      "Ġwonder": 2543,
      "Ġprovided": 2544,
      "ĠâĢ¦": 2545,
      "ĠJust": 2546,
      "atform": 2547,
      "Ġsuper": 2548,
      "Ġforward": 2549,
      "face": 2550,
      "Ġcomfort": 2551,
      "ha": 2552,
      "ĠHigh": 2553,
      "ĠBar": 2554,
      "Ġsubject": 2555,
      "azing": 2556,
      "ĠStates": 2557,
      "ees": 2558,
      "Ġcover": 2559,
      "Ġapplication": 2560,
      "Ġcharacter": 2561,
      "Ġincludes": 2562,
      "eter": 2563,
      "Ġdetails": 2564,
      "icles": 2565,
      "Ġunique": 2566,
      "Ġwords": 2567,
      "Ġkids": 2568,
      "Ġassoci": 2569,
      "empt": 2570,
      "Ġachie": 2571,
      "ĠOff": 2572,
      "Ġcredit": 2573,
      "Ġaccept": 2574,
      "anc": 2575,
      "Ġred": 2576,
      "ĠNow": 2577,
      "Ġsafe": 2578,
      "Ġtrue": 2579,
      "cription": 2580,
      "Ġrate": 2581,
      "itter": 2582,
      "rect": 2583,
      "Ġworth": 2584,
      "Ġsle": 2585,
      "23": 2586,
      "put": 2587,
      "Ġnothing": 2588,
      "Ġdate": 2589,
      "Ġroad": 2590,
      "Ġcomment": 2591,
      "cember": 2592,
      "Ġsix": 2593,
      "istic": 2594,
      "ĠApril": 2595,
      "Ġrepresent": 2596,
      "Ġnatural": 2597,
      "Ġstat": 2598,
      "Ġaccording": 2599,
      "uk": 2600,
      "Ġeducation": 2601,
      "amer": 2602,
      "ival": 2603,
      "na": 2604,
      "Ġdepend": 2605,
      "Ġloss": 2606,
      "ĠOf": 2607,
      "ief": 2608,
      "Ġfast": 2609,
      "Ġhigher": 2610,
      "Ġaction": 2611,
      "Ġ21": 2612,
      "nov": 2613,
      "Ġseems": 2614,
      "Ġsend": 2615,
      "US": 2616,
      "Ġvi": 2617,
      "oud": 2618,
      "Ġ2010": 2619,
      "Ġtakes": 2620,
      "Ġsho": 2621,
      "Ġsecurity": 2622,
      "year": 2623,
      "Ġstyle": 2624,
      "Ġweeks": 2625,
      "Ġsales": 2626,
      "Ġknowledge": 2627,
      "Ġsystems": 2628,
      "ĠAM": 2629,
      "Ġchanges": 2630,
      "Ġrole": 2631,
      "ama": 2632,
      "Ġannoun": 2633,
      "Ġconcern": 2634,
      "amb": 2635,
      "ĠCO": 2636,
      "Ġaf": 2637,
      "Ġgra": 2638,
      "ek": 2639,
      "ĠJuly": 2640,
      "Ġrespect": 2641,
      "ĠReg": 2642,
      "Ġtou": 2643,
      "iter": 2644,
      "opy": 2645,
      "Ġfail": 2646,
      "Ġgeneral": 2647,
      "Ġtreatment": 2648,
      "Ġcommunic": 2649,
      "medi": 2650,
      "ought": 2651,
      "ĠGe": 2652,
      "Ã©": 2653,
      "Ġevents": 2654,
      "Ġinside": 2655,
      "ĠSome": 2656,
      "ĠFin": 2657,
      "Ġball": 2658,
      "Ġfire": 2659,
      "Ġasked": 2660,
      "ĠCenter": 2661,
      "Ph": 2662,
      "Ġswe": 2663,
      "Ġdesigned": 2664,
      "ests": 2665,
      "idge": 2666,
      "Ġop": 2667,
      "Ġtrack": 2668,
      "gu": 2669,
      "Ġfinal": 2670,
      "Ġvia": 2671,
      "ĠAct": 2672,
      "Ġestab": 2673,
      "Ġcouple": 2674,
      "aving": 2675,
      "Ġoutside": 2676,
      "Ġinj": 2677,
      "ĠPa": 2678,
      "ecut": 2679,
      "Ġhost": 2680,
      "adem": 2681,
      "Ġanyone": 2682,
      "Ġdeg": 2683,
      "Ġhon": 2684,
      "erc": 2685,
      "Ġparty": 2686,
      "Ġbehind": 2687,
      "ĠRead": 2688,
      "Ġstruct": 2689,
      "Ġopportunity": 2690,
      "over": 2691,
      "ĠAut": 2692,
      "mit": 2693,
      "Ġexact": 2694,
      "Ġensure": 2695,
      "Ġcoll": 2696,
      "iet": 2697,
      "Ġrunning": 2698,
      "Ġbox": 2699,
      "arth": 2700,
      "ux": 2701,
      "itchen": 2702,
      "My": 2703,
      "Ġplayers": 2704,
      "urg": 2705,
      "Ġprint": 2706,
      ".)": 2707,
      "Ġhappy": 2708,
      "Ġcolor": 2709,
      "ĠInt": 2710,
      "Ġpotential": 2711,
      "Ġstop": 2712,
      "Ġskin": 2713,
      "Ġtotal": 2714,
      "Ġnetwork": 2715,
      "Ġcontract": 2716,
      "lier": 2717,
      "Ġcreated": 2718,
      "action": 2719,
      "Ġcoun": 2720,
      "ham": 2721,
      "Ġlonger": 2722,
      "arter": 2723,
      "ales": 2724,
      "Ġrecogn": 2725,
      "Ġautom": 2726,
      "Ġcustomer": 2727,
      "Ġrecent": 2728,
      "Ġregular": 2729,
      "ĠCounty": 2730,
      "olutions": 2731,
      "Ġshows": 2732,
      "oph": 2733,
      "Ġneg": 2734,
      "Ġlearning": 2735,
      "atory": 2736,
      "Ġusers": 2737,
      "Ġpark": 2738,
      "Ġtit": 2739,
      "cast": 2740,
      "Ġlay": 2741,
      "Ġwall": 2742,
      "aker": 2743,
      "ĠTH": 2744,
      "Ġfeature": 2745,
      "Ġ23": 2746,
      "ĠHis": 2747,
      "cellent": 2748,
      "Ġ22": 2749,
      "ruary": 2750,
      "Ġfit": 2751,
      "Ġlooks": 2752,
      "Ġfig": 2753,
      "Ġveh": 2754,
      "Ġground": 2755,
      "Ġgrowth": 2756,
      "ĠDay": 2757,
      "Ġcannot": 2758,
      "ĠWest": 2759,
      "aging": 2760,
      "OT": 2761,
      "Ġinsurance": 2762,
      "nes": 2763,
      "Ġready": 2764,
      "ĠCr": 2765,
      "Ġdrive": 2766,
      "Ġ+": 2767,
      "Ġ2021": 2768,
      "Ġversion": 2769,
      "Ġdating": 2770,
      "Ġplant": 2771,
      "oura": 2772,
      "Ġclick": 2773,
      "Ġnorm": 2774,
      "AM": 2775,
      "ĠJanuary": 2776,
      "Ġthroughout": 2777,
      "aining": 2778,
      "Ġmarketing": 2779,
      "Ġ40": 2780,
      "airs": 2781,
      "Ġadditional": 2782,
      "Ġmedical": 2783,
      "org": 2784,
      "Ġleave": 2785,
      "Ġcurrently": 2786,
      "aby": 2787,
      "Ġgen": 2788,
      "Ġweight": 2789,
      "ĠDon": 2790,
      "Ġstock": 2791,
      "ude": 2792,
      "eds": 2793,
      "Ġdom": 2794,
      "Ġbooks": 2795,
      "cil": 2796,
      "ma": 2797,
      "ĠHome": 2798,
      "Ġprim": 2799,
      "Ġbott": 2800,
      "clus": 2801,
      "ĠMon": 2802,
      "Ġupon": 2803,
      "Ġproduction": 2804,
      "ming": 2805,
      "Ġideas": 2806,
      "Ġdeath": 2807,
      "Ġitems": 2808,
      "Ġmultip": 2809,
      "ags": 2810,
      "Posted": 2811,
      "Ġmember": 2812,
      "ĠBlack": 2813,
      "ĠAdd": 2814,
      "ĠHouse": 2815,
      "ĠOctober": 2816,
      "Ġbase": 2817,
      "ĠSeptember": 2818,
      "Ġrad": 2819,
      "iddle": 2820,
      "\".": 2821,
      "aced": 2822,
      "Ġplatform": 2823,
      "anguage": 2824,
      "Ġmoment": 2825,
      "Ġuser": 2826,
      "Ġill": 2827,
      "ĠAugust": 2828,
      "Ġprior": 2829,
      "hib": 2830,
      "Ġobject": 2831,
      "ground": 2832,
      "uses": 2833,
      "ĠVal": 2834,
      "Ġstra": 2835,
      "ese": 2836,
      "Ġpatients": 2837,
      "Ġinde": 2838,
      "Ġcollect": 2839,
      "imum": 2840,
      "Ġheld": 2841,
      "70": 2842,
      "Ġpractice": 2843,
      "hel": 2844,
      "based": 2845,
      "Ġmass": 2846,
      "Ġskills": 2847,
      "Ġreceived": 2848,
      "bor": 2849,
      "Ġtarget": 2850,
      "Ġeasily": 2851,
      "Ġreceive": 2852,
      "inary": 2853,
      "Ġdescrib": 2854,
      "ĠCollege": 2855,
      "Ġanim": 2856,
      "Ġsens": 2857,
      "Ġoption": 2858,
      "ression": 2859,
      "ĠFree": 2860,
      "Ġchoice": 2861,
      "Ġple": 2862,
      "Ġrecently": 2863,
      "Ġfa": 2864,
      "ING": 2865,
      "Ġmaintain": 2866,
      "Ġscreen": 2867,
      "Ġterms": 2868,
      "Ġprivate": 2869,
      "Ġmachine": 2870,
      "itely": 2871,
      "ĠUp": 2872,
      "Ġpan": 2873,
      "Ġoriginal": 2874,
      "Ġsale": 2875,
      "Ġpolicy": 2876,
      "Ġcause": 2877,
      "ĠSw": 2878,
      "Ġstri": 2879,
      "Ġequipment": 2880,
      "ĠNovember": 2881,
      "ĠEl": 2882,
      "mon": 2883,
      "Ġofficial": 2884,
      "fficient": 2885,
      "Com": 2886,
      "Ġactivities": 2887,
      "Ġsell": 2888,
      "Ġmark": 2889,
      "iber": 2890,
      "Ġquickly": 2891,
      "Ġattend": 2892,
      "Ġhair": 2893,
      "Ġsym": 2894,
      "pri": 2895,
      "Ġâ": 2896,
      "pir": 2897,
      "Ġprograms": 2898,
      "just": 2899,
      "Ġplaying": 2900,
      "Ġwrite": 2901,
      "Ġindic": 2902,
      "Ġtown": 2903,
      "ĠHere": 2904,
      "Ġleaders": 2905,
      "Ġemb": 2906,
      "Ġones": 2907,
      "Ġsaw": 2908,
      "ĠAcc": 2909,
      "irth": 2910,
      "Ġsense": 2911,
      "Ġbal": 2912,
      "ett": 2913,
      "Ġdecision": 2914,
      "arden": 2915,
      "Ġcomputer": 2916,
      "mas": 2917,
      "Ġmatch": 2918,
      "Ġpers": 2919,
      "Ġfile": 2920,
      "sy": 2921,
      "Ġability": 2922,
      "Ex": 2923,
      "light": 2924,
      "Ġteac": 2925,
      "Ġgrad": 2926,
      "Ġboard": 2927,
      "Ġhol": 2928,
      "Ġmention": 2929,
      "oke": 2930,
      "iff": 2931,
      "Ġrelated": 2932,
      "Ġlatest": 2933,
      "ky": 2934,
      "ĠAmerica": 2935,
      "By": 2936,
      "Ġcool": 2937,
      "Our": 2938,
      "ny": 2939,
      "Ġamazing": 2940,
      "Ġaffect": 2941,
      "Ġapply": 2942,
      "lim": 2943,
      "Ġintrodu": 2944,
      "Ġcases": 2945,
      "ville": 2946,
      "Ġchance": 2947,
      "Ġmix": 2948,
      "ĠDav": 2949,
      "Ġlower": 2950,
      "Ġsong": 2951,
      "Ġcele": 2952,
      "Ġbank": 2953,
      "Ġsaf": 2954,
      "pper": 2955,
      "ological": 2956,
      "Ġbuilt": 2957,
      "Ġvac": 2958,
      "With": 2959,
      "Ġstudent": 2960,
      "onse": 2961,
      "wood": 2962,
      "erve": 2963,
      "Be": 2964,
      "Ġsites": 2965,
      "like": 2966,
      "Ġobs": 2967,
      "ĠFrom": 2968,
      "Ġcareer": 2969,
      "ĠPar": 2970,
      "New": 2971,
      "ET": 2972,
      "off": 2973,
      "Ġbi": 2974,
      "enced": 2975,
      "Ġsat": 2976,
      "Ġvariety": 2977,
      "ĠDecember": 2978,
      "ĠAustral": 2979,
      "aign": 2980,
      "Ġlocation": 2981,
      "hood": 2982,
      "ĠUK": 2983,
      "Ġsex": 2984,
      "ĠReview": 2985,
      "ached": 2986,
      "ĠAc": 2987,
      "Ġlate": 2988,
      "Ġclos": 2989,
      "pose": 2990,
      "Ġlives": 2991,
      "Ġcode": 2992,
      "Ġmobile": 2993,
      "Ġstandard": 2994,
      "ĠWas": 2995,
      "All": 2996,
      "ession": 2997,
      "26": 2998,
      "cip": 2999,
      "Ġcomments": 3000,
      "ule": 3001,
      "ĠOut": 3002,
      "asons": 3003,
      "Ġbud": 3004,
      "acebook": 3005,
      "Ġattack": 3006,
      "ournal": 3007,
      "uel": 3008,
      "Ġprojects": 3009,
      "Ġdeep": 3010,
      "ĠCour": 3011,
      "Ġclients": 3012,
      "Ġtypes": 3013,
      "iction": 3014,
      "Ġmorning": 3015,
      "ĠPresident": 3016,
      "Ġworked": 3017,
      "Ġremember": 3018,
      "ĠBusiness": 3019,
      "Ġep": 3020,
      "Ġtour": 3021,
      "Ġapproach": 3022,
      "ĠWind": 3023,
      "ension": 3024,
      "rup": 3025,
      "EC": 3026,
      "ĠAir": 3027,
      "Ġmyself": 3028,
      "Ġ28": 3029,
      "Ġdest": 3030,
      "Ġimage": 3031,
      "ray": 3032,
      "Ġcosts": 3033,
      "reng": 3034,
      "ague": 3035,
      "Ġnational": 3036,
      "Ġincluded": 3037,
      "Ġinstead": 3038,
      "Ġsummer": 3039,
      "ĠCons": 3040,
      "artment": 3041,
      "where": 3042,
      "Ġgold": 3043,
      "Ġgoal": 3044,
      "Ġchalleng": 3045,
      "Ġcourt": 3046,
      "ivity": 3047,
      "Cl": 3048,
      "Ġhtt": 3049,
      "Ġsqu": 3050,
      "Ġbenefits": 3051,
      "uth": 3052,
      "45": 3053,
      "Ġwood": 3054,
      "Ġdraw": 3055,
      "Ġthemselves": 3056,
      "Ġhit": 3057,
      "27": 3058,
      "Ġeffective": 3059,
      "Ġrout": 3060,
      "Ġ26": 3061,
      "Ġmeeting": 3062,
      "eal": 3063,
      "Ġessay": 3064,
      "Ġround": 3065,
      "ĠMus": 3066,
      "Ġnecessary": 3067,
      "ĠTV": 3068,
      "ĠHar": 3069,
      "Ġcand": 3070,
      "ciety": 3071,
      "ĠMr": 3072,
      "Ġ=": 3073,
      "ĠWhile": 3074,
      "str": 3075,
      "erous": 3076,
      "plement": 3077,
      "inc": 3078,
      "Ġfeed": 3079,
      "fered": 3080,
      "28": 3081,
      "Ġarri": 3082,
      "ĠPat": 3083,
      "ĠChar": 3084,
      "Ġconditions": 3085,
      "Ġgoes": 3086,
      "Ġlocated": 3087,
      "Ġlost": 3088,
      "oe": 3089,
      "Ġaw": 3090,
      "hold": 3091,
      "ica": 3092,
      "Ġ*": 3093,
      "roups": 3094,
      "ĠMarket": 3095,
      "ĠIndia": 3096,
      "Ġitself": 3097,
      "ĠPost": 3098,
      "vey": 3099,
      "haps": 3100,
      "rown": 3101,
      "Ġplans": 3102,
      "Ġinternational": 3103,
      "Ġhuge": 3104,
      "AP": 3105,
      "rel": 3106,
      "ĠGoogle": 3107,
      "Ġsett": 3108,
      "Ġlevels": 3109,
      "Ġimm": 3110,
      "Ġri": 3111,
      "atives": 3112,
      "Ġpm": 3113,
      "EL": 3114,
      "ĠChina": 3115,
      "ĠEnglish": 3116,
      "Ġ2009": 3117,
      "Ġsepar": 3118,
      "alt": 3119,
      "ĠSer": 3120,
      "ĠÂ»": 3121,
      "Ġdru": 3122,
      "Ġparts": 3123,
      "ĠHer": 3124,
      "Ġcy": 3125,
      "cover": 3126,
      "ĠAfric": 3127,
      "avy": 3128,
      "Ġhands": 3129,
      "Ġwritten": 3130,
      "ĠAre": 3131,
      "Ġ27": 3132,
      "Ġsun": 3133,
      "Ġfavorite": 3134,
      "ament": 3135,
      "Ġrequest": 3136,
      "35": 3137,
      "ederal": 3138,
      "Ġmodern": 3139,
      "ari": 3140,
      "ĠBest": 3141,
      "ĠBook": 3142,
      "kend": 3143,
      "Ġexcellent": 3144,
      "Ġpurchase": 3145,
      "Ġallows": 3146,
      "Ġcertainly": 3147,
      "Ġwar": 3148,
      "OU": 3149,
      "ĠHot": 3150,
      "ĠSan": 3151,
      "29": 3152,
      "Ġimmedi": 3153,
      "Ġtrust": 3154,
      "Ġdoor": 3155,
      "Ġflow": 3156,
      "Ġglobal": 3157,
      "ĠTechn": 3158,
      "Ġleading": 3159,
      "Ġsil": 3160,
      "ĠSci": 3161,
      "Ġwrong": 3162,
      "Ġmother": 3163,
      "Ġcollege": 3164,
      "bit": 3165,
      "ĠNet": 3166,
      "ara": 3167,
      "ester": 3168,
      "Ġfix": 3169,
      "mercial": 3170,
      "Ġinteresting": 3171,
      "Ġformer": 3172,
      "ĠDirect": 3173,
      "Ġinvolved": 3174,
      "Ġdigital": 3175,
      "Ġanswer": 3176,
      "wise": 3177,
      "Ġsolution": 3178,
      "hern": 3179,
      "Ġsafety": 3180,
      "Ġearn": 3181,
      "ishing": 3182,
      "Ġsave": 3183,
      "OS": 3184,
      "ening": 3185,
      "Ġdise": 3186,
      "iles": 3187,
      "Ġaverage": 3188,
      "ondon": 3189,
      "Ġanalysis": 3190,
      "igation": 3191,
      "ĠFebruary": 3192,
      "Ġfresh": 3193,
      "mb": 3194,
      "Ġextreme": 3195,
      "Ġblood": 3196,
      "One": 3197,
      "board": 3198,
      "Ġpred": 3199,
      "ĠWar": 3200,
      "De": 3201,
      "body": 3202,
      "Ġsource": 3203,
      "ĠFe": 3204,
      "Ġsn": 3205,
      "Ġcountries": 3206,
      "Ġgets": 3207,
      "Ġpositive": 3208,
      "irit": 3209,
      "At": 3210,
      "Ġthinking": 3211,
      "Ġgives": 3212,
      "ressed": 3213,
      "Ġ@": 3214,
      "ube": 3215,
      "Ġlegal": 3216,
      "ĠService": 3217,
      "Ġparents": 3218,
      "Ġtools": 3219,
      "Ġsurpr": 3220,
      "Ġexcept": 3221,
      "Ġattention": 3222,
      "Ġhear": 3223,
      "Ġremov": 3224,
      "Ġsche": 3225,
      "ĠSupp": 3226,
      "pre": 3227,
      "zz": 3228,
      "Ġfight": 3229,
      "fl": 3230,
      "unt": 3231,
      "Ġdefinitely": 3232,
      "Ġlab": 3233,
      "Ġenter": 3234,
      "ĠAssoci": 3235,
      "Ġcompletely": 3236,
      "Ġinternet": 3237,
      "aturday": 3238,
      "Ġemer": 3239,
      "Ġresources": 3240,
      "ĠGet": 3241,
      "partment": 3242,
      "Ġord": 3243,
      "Ġcenter": 3244,
      "ION": 3245,
      "ĠSch": 3246,
      "log": 3247,
      "Ġcommit": 3248,
      "orage": 3249,
      "amed": 3250,
      "key": 3251,
      "ibly": 3252,
      "Ġspeak": 3253,
      "Ġhighly": 3254,
      "IL": 3255,
      "Ġdaily": 3256,
      "ĠMich": 3257,
      "iding": 3258,
      "Ġdecided": 3259,
      "Ġrent": 3260,
      "verse": 3261,
      "Ġfair": 3262,
      "Ġattempt": 3263,
      "Ġlif": 3264,
      "ĠFriday": 3265,
      "duc": 3266,
      "Ġwasn": 3267,
      "ĠGener": 3268,
      "ĠRed": 3269,
      "Ġdetail": 3270,
      "ĠServices": 3271,
      "ĠInternational": 3272,
      "Ġtouch": 3273,
      "ĠPlease": 3274,
      "Ġhor": 3275,
      "cious": 3276,
      "Ġhelps": 3277,
      "EO": 3278,
      "ĠSim": 3279,
      "âĢ¢": 3280,
      "AD": 3281,
      "Ġmaterials": 3282,
      "attle": 3283,
      "illing": 3284,
      "Ġpropos": 3285,
      "ĠGl": 3286,
      "idered": 3287,
      "Ġcasino": 3288,
      "unday": 3289,
      "Ġobtain": 3290,
      "Ġwoman": 3291,
      "Ġsituation": 3292,
      "omen": 3293,
      "Ġcondition": 3294,
      "mission": 3295,
      "isc": 3296,
      "aves": 3297,
      "Ġbus": 3298,
      "ams": 3299,
      "Ġmultiple": 3300,
      "Ġprices": 3301,
      "olute": 3302,
      "Ġdevice": 3303,
      "Ġencoura": 3304,
      "add": 3305,
      "ores": 3306,
      "ager": 3307,
      "Ġdisplay": 3308,
      "Ġreviews": 3309,
      "king": 3310,
      "Ġcirc": 3311,
      "Ġcorrect": 3312,
      "That": 3313,
      "Ġprin": 3314,
      "Ġrestaur": 3315,
      "ĠMet": 3316,
      "urb": 3317,
      "ĠLa": 3318,
      "ospital": 3319,
      "Ġmat": 3320,
      "Ġtal": 3321,
      "mm": 3322,
      "Ġdiv": 3323,
      "band": 3324,
      "raft": 3325,
      "Ġstreng": 3326,
      "ĠLaw": 3327,
      "Ġindividuals": 3328,
      "Ġrequirements": 3329,
      "Ġsection": 3330,
      "ography": 3331,
      "Ġqual": 3332,
      "Ġblock": 3333,
      "Ġcat": 3334,
      "Ġpath": 3335,
      "enty": 3336,
      "Ġstuff": 3337,
      "Ġfine": 3338,
      "Ġproviding": 3339,
      "aged": 3340,
      "ĠDepartment": 3341,
      "Ġ2008": 3342,
      "Ġexpected": 3343,
      "right": 3344,
      "Ġimplement": 3345,
      "ĠThen": 3346,
      "Ġrelease": 3347,
      "apan": 3348,
      "ĠDesign": 3349,
      "cies": 3350,
      "Ġrev": 3351,
      "onday": 3352,
      "rows": 3353,
      "www": 3354,
      "Ġmag": 3355,
      "vant": 3356,
      "Ġfelt": 3357,
      "Ġdrink": 3358,
      "Ġcollection": 3359,
      "Ġpiece": 3360,
      "ceed": 3361,
      "chan": 3362,
      "ĠÂ£": 3363,
      "Ġcampaign": 3364,
      "rences": 3365,
      "Ġsaying": 3366,
      "Ġadvant": 3367,
      "orge": 3368,
      "aught": 3369,
      "ĠFacebook": 3370,
      "oms": 3371,
      "more": 3372,
      "ĠBrit": 3373,
      "Ġgroups": 3374,
      "pm": 3375,
      "Ġsus": 3376,
      "ategy": 3377,
      "aste": 3378,
      "Ġdocument": 3379,
      "Ġadminist": 3380,
      "ĠSystem": 3381,
      "Ġexpert": 3382,
      "ares": 3383,
      "Ġwish": 3384,
      "aches": 3385,
      "enge": 3386,
      "Ġgiving": 3387,
      "rought": 3388,
      "ĠGerm": 3389,
      "ĠIns": 3390,
      "Ġjud": 3391,
      "Ġviol": 3392,
      "oul": 3393,
      "Ġdep": 3394,
      "ani": 3395,
      "Ġinflu": 3396,
      "aint": 3397,
      "Ġgreen": 3398,
      "Ġconcept": 3399,
      "Ġcross": 3400,
      "Ġconsist": 3401,
      "Ġ29": 3402,
      "No": 3403,
      "ĠTrans": 3404,
      "Ġhotel": 3405,
      "Ġbath": 3406,
      "ĠFirst": 3407,
      "Ġsleep": 3408,
      "Ġresponse": 3409,
      "isions": 3410,
      "Ġreported": 3411,
      "Ġstarting": 3412,
      "Ġspeed": 3413,
      "vest": 3414,
      "iforn": 3415,
      "Ġprevent": 3416,
      "Ġarch": 3417,
      "Ġlanguage": 3418,
      "Ġtowards": 3419,
      "ĠMod": 3420,
      "itation": 3421,
      "Ġpolitical": 3422,
      "ength": 3423,
      "izes": 3424,
      "Ġbecame": 3425,
      "33": 3426,
      "OM": 3427,
      "Ġgave": 3428,
      "Ġphotos": 3429,
      "Ġdirectly": 3430,
      "Ġexactly": 3431,
      "Ġsometimes": 3432,
      "ris": 3433,
      "ĠCoun": 3434,
      "Ġmovie": 3435,
      "bert": 3436,
      "itable": 3437,
      "ĠGroup": 3438,
      "uate": 3439,
      "gar": 3440,
      "Ġcash": 3441,
      "Ġbegan": 3442,
      "ĠKing": 3443,
      "nds": 3444,
      "Ġpull": 3445,
      "ĠEvery": 3446,
      "Ġsubst": 3447,
      "yond": 3448,
      "Ġkitchen": 3449,
      "ĠProf": 3450,
      "Ġorganization": 3451,
      "Ġacqu": 3452,
      "Ġrights": 3453,
      "sych": 3454,
      "error": 3455,
      "ald": 3456,
      "OL": 3457,
      "Ġconsidered": 3458,
      "ancy": 3459,
      "Ġaltern": 3460,
      "Ġprogress": 3461,
      "urt": 3462,
      "fee": 3463,
      "Ġ60": 3464,
      "Ġsold": 3465,
      "pite": 3466,
      "Ġmid": 3467,
      "idents": 3468,
      "Ġinterested": 3469,
      "aries": 3470,
      "Ġwait": 3471,
      "Ġsupply": 3472,
      "Ġ198": 3473,
      "Ġsubs": 3474,
      "ifornia": 3475,
      "Ġslow": 3476,
      "Ġheard": 3477,
      "ading": 3478,
      "enior": 3479,
      "Ġeffects": 3480,
      "ĠAss": 3481,
      "Ġplayer": 3482,
      "Ġaff": 3483,
      "75": 3484,
      "Ġavoid": 3485,
      "ĠCle": 3486,
      "Ġstru": 3487,
      "edding": 3488,
      "Ġplanning": 3489,
      "oday": 3490,
      "rast": 3491,
      "word": 3492,
      "field": 3493,
      "ĠLondon": 3494,
      "Ġfirm": 3495,
      "Ġshall": 3496,
      "lin": 3497,
      "ĠGreat": 3498,
      "ida": 3499,
      "otes": 3500,
      "urning": 3501,
      "Ġtrip": 3502,
      "itary": 3503,
      "Ġpicture": 3504,
      "ael": 3505,
      "Ġweekend": 3506,
      "ĠMost": 3507,
      "Ġplayed": 3508,
      "Ġbra": 3509,
      "Ġcomplex": 3510,
      "inding": 3511,
      "Ġeyes": 3512,
      "Ġtried": 3513,
      "Ġcarry": 3514,
      "Ġfloor": 3515,
      "ĠOb": 3516,
      "Ġregist": 3517,
      "itute": 3518,
      "iring": 3519,
      "isf": 3520,
      "Ġsolutions": 3521,
      "Ġaware": 3522,
      "Ġcelebr": 3523,
      "Ġdefe": 3524,
      "Ġmaybe": 3525,
      "Un": 3526,
      "ĠStreet": 3527,
      "lock": 3528,
      "down": 3529,
      "arant": 3530,
      "imately": 3531,
      "Ġphysical": 3532,
      "==": 3533,
      "Ġconvers": 3534,
      "):": 3535,
      "Ġstates": 3536,
      "sec": 3537,
      "Ġreach": 3538,
      "Ġprevious": 3539,
      "Ġmount": 3540,
      "tee": 3541,
      "ĠIN": 3542,
      "Ġwel": 3543,
      "edic": 3544,
      "Ġmedic": 3545,
      "ĠOnline": 3546,
      "ĠChristmas": 3547,
      "Ġinterview": 3548,
      "ilies": 3549,
      "Ġpartners": 3550,
      "omew": 3551,
      "Ġconduct": 3552,
      "Ġplaces": 3553,
      "Ġdead": 3554,
      "Ġcapt": 3555,
      "ĠPri": 3556,
      "Ġtele": 3557,
      "ashion": 3558,
      "Ġfully": 3559,
      "Ġcert": 3560,
      "Ġhour": 3561,
      "ulations": 3562,
      "reci": 3563,
      "rial": 3564,
      "Ġlic": 3565,
      "Ġreve": 3566,
      "Ġsuccessful": 3567,
      "ĠAlso": 3568,
      "Ġpolice": 3569,
      "Ġwonderful": 3570,
      "Ġwarm": 3571,
      "Ġprem": 3572,
      "Ġdry": 3573,
      "ðŁ": 3574,
      "Ġstrateg": 3575,
      "ults": 3576,
      "Ġvict": 3577,
      "Ġdifference": 3578,
      "antly": 3579,
      "ĠThanks": 3580,
      "het": 3581,
      "Ġachieve": 3582,
      "aly": 3583,
      "lied": 3584,
      "Ġdark": 3585,
      "Ġspot": 3586,
      "Ġnature": 3587,
      "Ġexecut": 3588,
      "Ġlimited": 3589,
      "ĠDel": 3590,
      "Ġdeveloped": 3591,
      "Ġbroad": 3592,
      "zy": 3593,
      "Ġmessage": 3594,
      "Ġpublished": 3595,
      "Ad": 3596,
      "ĠGold": 3597,
      "ports": 3598,
      "Ġneigh": 3599,
      "Ġbusinesses": 3600,
      "\",": 3601,
      "ker": 3602,
      "Ġdegree": 3603,
      "pa": 3604,
      "After": 3605,
      "Ġsort": 3606,
      "Ġlack": 3607,
      "ibrary": 3608,
      "Ġinform": 3609,
      "vin": 3610,
      "Ġeconomic": 3611,
      "ruit": 3612,
      "arily": 3613,
      "Ġutil": 3614,
      "ĠPlay": 3615,
      "Ġdemand": 3616,
      "Ġbehav": 3617,
      "ĠSunday": 3618,
      "Ġactivity": 3619,
      "Ġled": 3620,
      "Ġpressure": 3621,
      "ipping": 3622,
      "Ġgas": 3623,
      "new": 3624,
      "100": 3625,
      "Ġapplications": 3626,
      "Ġfeeling": 3627,
      "Ġemployees": 3628,
      "ĠSaturday": 3629,
      "gen": 3630,
      "Ġsam": 3631,
      "ĠProgram": 3632,
      "Ġbudget": 3633,
      "Ġcateg": 3634,
      "Ġenh": 3635,
      "change": 3636,
      "ĠAN": 3637,
      "Ġgrowing": 3638,
      "Ġcamer": 3639,
      "Ġpresident": 3640,
      "PS": 3641,
      "Ġuses": 3642,
      "anch": 3643,
      "ĠGood": 3644,
      "Ġhealthy": 3645,
      "Ar": 3646,
      "Ġfrequ": 3647,
      "oly": 3648,
      "Ġson": 3649,
      "Ġdream": 3650,
      "Ġpaid": 3651,
      "ĠDevelop": 3652,
      "Ġroll": 3653,
      "Ġdeliver": 3654,
      "Ġclub": 3655,
      "Ġessential": 3656,
      "Ġassess": 3657,
      "36": 3658,
      "Do": 3659,
      "lement": 3660,
      "rench": 3661,
      "Ġinnov": 3662,
      "Ġhous": 3663,
      "sequ": 3664,
      "ĠWhite": 3665,
      "wor": 3666,
      "Ġguide": 3667,
      "istics": 3668,
      "Ġrates": 3669,
      "Ġexerc": 3670,
      "Ġdire": 3671,
      "yd": 3672,
      "Ġdog": 3673,
      "Ġeffort": 3674,
      "--------": 3675,
      "olf": 3676,
      "Ġinvestment": 3677,
      "Ġeat": 3678,
      "Ġknew": 3679,
      "ĠWork": 3680,
      "Ġmoving": 3681,
      "Ġtraditional": 3682,
      "Ġpen": 3683,
      "Ġver": 3684,
      "Ġtick": 3685,
      "Ġpages": 3686,
      "Ġschools": 3687,
      "oming": 3688,
      "ĠRem": 3689,
      "mitted": 3690,
      "Ġunderstanding": 3691,
      "Ġinstru": 3692,
      "Ġmax": 3693,
      "la": 3694,
      "ads": 3695,
      "90": 3696,
      "Ġcreating": 3697,
      "Ġdro": 3698,
      "aughter": 3699,
      "mat": 3700,
      "Ġbirth": 3701,
      "Ġimages": 3702,
      "Ġrespond": 3703,
      "venue": 3704,
      "porate": 3705,
      "Ġten": 3706,
      "rote": 3707,
      "ĠWeb": 3708,
      "ĠWell": 3709,
      "hington": 3710,
      "ĠEven": 3711,
      "Ġmanufacture": 3712,
      "ĠPort": 3713,
      "ĠEast": 3714,
      "Ġnote": 3715,
      "ĠEduc": 3716,
      "ronic": 3717,
      "Se": 3718,
      "asc": 3719,
      "bon": 3720,
      "Ġtrade": 3721,
      "Ġfarm": 3722,
      "mail": 3723,
      "ying": 3724,
      "ties": 3725,
      "44": 3726,
      "ĠJe": 3727,
      "Ġabsolute": 3728,
      "Ġstraight": 3729,
      "Ġreleased": 3730,
      "Ġoverall": 3731,
      "Ġadvert": 3732,
      "Ġult": 3733,
      "IG": 3734,
      "BC": 3735,
      "ĠOther": 3736,
      "Ġconstruction": 3737,
      "Ġstories": 3738,
      "Ġlooked": 3739,
      "ĠJapan": 3740,
      "Ġbrought": 3741,
      "Ġrock": 3742,
      "Ġturned": 3743,
      "Ġloved": 3744,
      "Ġpurpose": 3745,
      "ĠCalifornia": 3746,
      "ĠInter": 3747,
      "place": 3748,
      "Ġcry": 3749,
      "ancing": 3750,
      "Ġimag": 3751,
      "oto": 3752,
      "inner": 3753,
      "uesday": 3754,
      "ĠRuss": 3755,
      "Ġaccom": 3756,
      "Ġcopy": 3757,
      "Ġappropri": 3758,
      "Ġwants": 3759,
      "ursday": 3760,
      "Ġlik": 3761,
      "ĠGreen": 3762,
      "etic": 3763,
      "Ġjobs": 3764,
      "Ġtemper": 3765,
      "ĠDem": 3766,
      "Ġcharge": 3767,
      "Ġstage": 3768,
      "Ġgoals": 3769,
      "Ġaim": 3770,
      "Ġbasic": 3771,
      "95": 3772,
      "Ġprefer": 3773,
      "ses": 3774,
      "ivil": 3775,
      "istry": 3776,
      "Ġconsult": 3777,
      "ĠMonday": 3778,
      "Ġbenefit": 3779,
      "ĠCompany": 3780,
      "??": 3781,
      "ĠOver": 3782,
      "unk": 3783,
      "bum": 3784,
      "Ġregion": 3785,
      "col": 3786,
      "roid": 3787,
      "Con": 3788,
      "Ġter": 3789,
      "ednes": 3790,
      "Ġfinally": 3791,
      "Ġlog": 3792,
      "Ġbaby": 3793,
      "Ġcontribut": 3794,
      "Ab": 3795,
      "Ġproced": 3796,
      "ĠCanada": 3797,
      "Ġglass": 3798,
      "Ġopportunities": 3799,
      "Ġappreci": 3800,
      "Ġorganiz": 3801,
      "Ġsmart": 3802,
      "Ġpattern": 3803,
      "ĠTy": 3804,
      "Is": 3805,
      "Ġheat": 3806,
      "wide": 3807,
      "ownload": 3808,
      "Ġvehicle": 3809,
      "Ġbeginning": 3810,
      "Ġeye": 3811,
      "Ġhimself": 3812,
      "Ġfab": 3813,
      "EM": 3814,
      "ï¿": 3815,
      "Ġspent": 3816,
      "Ġnormal": 3817,
      "ĠTop": 3818,
      "ils": 3819,
      "Ġteams": 3820,
      "Ġfell": 3821,
      "Ġoffered": 3822,
      "ĠJes": 3823,
      "Ġlots": 3824,
      "01": 3825,
      "Ġgar": 3826,
      "house": 3827,
      "ĠII": 3828,
      "hest": 3829,
      "ï¿½": 3830,
      "ĠWindows": 3831,
      "iture": 3832,
      "amic": 3833,
      "set": 3834,
      "Ġcrusher": 3835,
      "ĠCourt": 3836,
      "Ġevidence": 3837,
      "Ġfurn": 3838,
      "lies": 3839,
      "ooth": 3840,
      "ĠâĢ¢": 3841,
      "ened": 3842,
      "They": 3843,
      "Ġaspect": 3844,
      "Ġfat": 3845,
      "ĠDist": 3846,
      "Ġculture": 3847,
      "Ġcompon": 3848,
      "ĠMor": 3849,
      "Ġstrategy": 3850,
      "Ġdoll": 3851,
      "Ġtruly": 3852,
      "estern": 3853,
      "Ġmis": 3854,
      "Ġphoto": 3855,
      "ĠResearch": 3856,
      "ĠJack": 3857,
      "sp": 3858,
      "Ġadvice": 3859,
      "atever": 3860,
      "IP": 3861,
      "Ġnation": 3862,
      "Ġindepend": 3863,
      "Ġpromot": 3864,
      "ulated": 3865,
      "Ġdemon": 3866,
      "rapy": 3867,
      "dom": 3868,
      "ĠYear": 3869,
      "ĠDec": 3870,
      "Ġhistor": 3871,
      "ĠIndian": 3872,
      "Ġband": 3873,
      "Ġnumbers": 3874,
      "Ġincreased": 3875,
      "su": 3876,
      "55": 3877,
      "Ġshown": 3878,
      "Ġextend": 3879,
      "Ġdistribut": 3880,
      "rem": 3881,
      "ednesday": 3882,
      "Ġcommercial": 3883,
      "Ġparticularly": 3884,
      "Ġpictures": 3885,
      "Ġcup": 3886,
      "azon": 3887,
      "ounds": 3888,
      "Ġclient": 3889,
      "Ġoccur": 3890,
      "Ġpow": 3891,
      "Ġfather": 3892,
      "Ġowners": 3893,
      "ĠManagement": 3894,
      "38": 3895,
      "care": 3896,
      "itect": 3897,
      "ĠAnt": 3898,
      "erved": 3899,
      "eria": 3900,
      "Ġtransfer": 3901,
      "Ġhop": 3902,
      "Ġ<": 3903,
      "Ġcapital": 3904,
      "Ġfamilies": 3905,
      "inated": 3906,
      "Ġwife": 3907,
      "Ġopin": 3908,
      "Ġeasier": 3909,
      "ĠLet": 3910,
      "Ġassociated": 3911,
      "reed": 3912,
      "Ġpet": 3913,
      "Ġ2022": 3914,
      "Ġafford": 3915,
      "Ġalthough": 3916,
      "acity": 3917,
      "ĠClass": 3918,
      "ĠSk": 3919,
      "ously": 3920,
      "ero": 3921,
      "Ġeval": 3922,
      "Ġnut": 3923,
      "Ġreduce": 3924,
      "Ġer": 3925,
      "tion": 3926,
      "34": 3927,
      "Ġincreasing": 3928,
      "Ġtalking": 3929,
      "Ġtitle": 3930,
      "order": 3931,
      "Ġdouble": 3932,
      "Cont": 3933,
      "Ġdoub": 3934,
      "Ġemot": 3935,
      "Ġthanks": 3936,
      "Ġdisease": 3937,
      "Ġannounced": 3938,
      "Ġliter": 3939,
      "Ġearlier": 3940,
      "ĠPaul": 3941,
      "aling": 3942,
      "Ġshop": 3943,
      "Ġextremely": 3944,
      "Ġprofession": 3945,
      "Ġactive": 3946,
      "Ġthous": 3947,
      "Ġfeet": 3948,
      "ĠTex": 3949,
      "Pl": 3950,
      "vis": 3951,
      "ĠPal": 3952,
      "rig": 3953,
      "Ġgrand": 3954,
      "Ġmeaning": 3955,
      "Ġstatement": 3956,
      "Ġthreat": 3957,
      "Ġcontain": 3958,
      "Ġdevices": 3959,
      "ocr": 3960,
      "ĠInternet": 3961,
      "Ġstorage": 3962,
      "ĠCare": 3963,
      "Ġnearly": 3964,
      "LE": 3965,
      "ĠDavid": 3966,
      "Ġstress": 3967,
      "Ġloan": 3968,
      "Ġrules": 3969,
      "Ġcru": 3970,
      "amily": 3971,
      "Ġalone": 3972,
      "Ġreasons": 3973,
      "ĠSub": 3974,
      "Ġclin": 3975,
      "ĠAny": 3976,
      "Ġcandid": 3977,
      "ned": 3978,
      "apter": 3979,
      "undred": 3980,
      "Ġthank": 3981,
      "Ġadjust": 3982,
      "ault": 3983,
      "Ne": 3984,
      "Read": 3985,
      "Ġwrote": 3986,
      "Ġchem": 3987,
      "imal": 3988,
      "ĠIr": 3989,
      "ĠMac": 3990,
      "Ġreports": 3991,
      "Ġregarding": 3992,
      "Ġoffering": 3993,
      "ĠSpr": 3994,
      "que": 3995,
      "Ġsports": 3996,
      "Ġreplace": 3997,
      "Ġintegr": 3998,
      "ĠMill": 3999,
      "Ġbasis": 4000,
      "Ġchanged": 4001,
      "Ġdamage": 4002,
      "Ġsatisf": 4003,
      "Ġbeyond": 4004,
      "Ġplus": 4005,
      "Ġpool": 4006,
      "Ġscience": 4007,
      "lation": 4008,
      "Ġstudies": 4009,
      "ĠPlan": 4010,
      "umn": 4011,
      "Ġmer": 4012,
      "orrow": 4013,
      "hol": 4014,
      "Ġstick": 4015,
      "Ġrace": 4016,
      "Ġfant": 4017,
      "Ġjoin": 4018,
      "Ġ2007": 4019,
      "Ġhus": 4020,
      "iling": 4021,
      "asy": 4022,
      "05": 4023,
      "39": 4024,
      "IM": 4025,
      "Ġcold": 4026,
      "force": 4027,
      "Ġmeasure": 4028,
      "raw": 4029,
      "Ġimmediately": 4030,
      "ĠRel": 4031,
      "Le": 4032,
      "Ġuseful": 4033,
      "Ġmiddle": 4034,
      "Ġcompared": 4035,
      "Ġaren": 4036,
      "Ġunit": 4037,
      "Ġallowed": 4038,
      "Ġbillion": 4039,
      "ken": 4040,
      "atively": 4041,
      "Home": 4042,
      "Te": 4043,
      "Ġquarter": 4044,
      "Ġaward": 4045,
      "Ġincome": 4046,
      "Ġtransport": 4047,
      "aming": 4048,
      "Ġshoot": 4049,
      "Ġtips": 4050,
      "Ġmiles": 4051,
      "Ġremain": 4052,
      "Ġlines": 4053,
      "Ġmethods": 4054,
      "Ġahead": 4055,
      "Ġstructure": 4056,
      "Ġproduce": 4057,
      "coming": 4058,
      "Get": 4059,
      "door": 4060,
      "ĠAnn": 4061,
      "odes": 4062,
      "ĠSu": 4063,
      "ĠEv": 4064,
      "Ġing": 4065,
      "Ġfra": 4066,
      "ij": 4067,
      "ĠWashington": 4068,
      "Ġ31": 4069,
      "iant": 4070,
      "37": 4071,
      "ĠPC": 4072,
      "ĠBel": 4073,
      "Ġprimary": 4074,
      "ico": 4075,
      "inger": 4076,
      "useum": 4077,
      "iment": 4078,
      "ĠFore": 4079,
      "Ġcolle": 4080,
      "Ġattract": 4081,
      "Ġspirit": 4082,
      "Ġcomfortable": 4083,
      "Ġserious": 4084,
      "iny": 4085,
      "see": 4086,
      "Ġsurface": 4087,
      "Ġguys": 4088,
      "ĠMany": 4089,
      "ĠST": 4090,
      "Ġcards": 4091,
      "ĠEuropean": 4092,
      "65": 4093,
      "term": 4094,
      "ĠTHE": 4095,
      "ĠOffice": 4096,
      "More": 4097,
      "ĠLife": 4098,
      "ago": 4099,
      "ĠAustralia": 4100,
      "Ġden": 4101,
      "Ġpatient": 4102,
      "Ġgreater": 4103,
      "Ġsetting": 4104,
      "gal": 4105,
      "hips": 4106,
      "arc": 4107,
      "ĠDet": 4108,
      "Ġstrugg": 4109,
      "Ġelectric": 4110,
      "Ġshot": 4111,
      "hens": 4112,
      "iation": 4113,
      "Ġsteps": 4114,
      "Ġitem": 4115,
      "ĠBoard": 4116,
      "Ġblue": 4117,
      "ulf": 4118,
      "ustain": 4119,
      "Ġdress": 4120,
      "ourney": 4121,
      "Ġcouldn": 4122,
      "Ġserve": 4123,
      "Ġposted": 4124,
      "IV": 4125,
      "Ġperhaps": 4126,
      "ston": 4127,
      "48": 4128,
      "ĠBank": 4129,
      "Ġmechan": 4130,
      "ĠRec": 4131,
      "Ġchallenge": 4132,
      "Now": 4133,
      "oices": 4134,
      "ĠMem": 4135,
      "ĠCommunity": 4136,
      "OW": 4137,
      "osing": 4138,
      "Ġpayment": 4139,
      "rey": 4140,
      "ĠLoc": 4141,
      "ĠHel": 4142,
      "ĠView": 4143,
      "rief": 4144,
      "esome": 4145,
      "ĠWilliam": 4146,
      "ulate": 4147,
      "Ġforce": 4148,
      "Ġfans": 4149,
      "Ġdecor": 4150,
      "aled": 4151,
      "ĠCouncil": 4152,
      "itiz": 4153,
      "nown": 4154,
      "box": 4155,
      "Ġinstitut": 4156,
      "Ġvirt": 4157,
      "ption": 4158,
      "itude": 4159,
      "ĠRoad": 4160,
      "Here": 4161,
      "Ġble": 4162,
      "Ġdelivery": 4163,
      "omb": 4164,
      "cause": 4165,
      "Ġexperienced": 4166,
      "Ġspread": 4167,
      "Ġlargest": 4168,
      "ĠHall": 4169,
      "fast": 4170,
      "ĠJesus": 4171,
      "Ġnotice": 4172,
      "Ġcontinu": 4173,
      "Ġtrou": 4174,
      "32": 4175,
      "Ġgenerally": 4176,
      "SS": 4177,
      "dule": 4178,
      "Ġhelped": 4179,
      "Ġsurv": 4180,
      "ĠRet": 4181,
      "Ġsand": 4182,
      "ĠWhe": 4183,
      "Ġsweet": 4184,
      "orial": 4185,
      "Ġcancer": 4186,
      "mark": 4187,
      "Ġviews": 4188,
      "Ġfear": 4189,
      "Ġstar": 4190,
      "ĠBre": 4191,
      "Ġfem": 4192,
      "ustr": 4193,
      "htt": 4194,
      "Ġbon": 4195,
      "Ġbur": 4196,
      "za": 4197,
      "Ġrelig": 4198,
      "Ġlength": 4199,
      "akers": 4200,
      "ĠBra": 4201,
      "phone": 4202,
      "ooking": 4203,
      "Ġpoor": 4204,
      "oos": 4205,
      "Ġreflect": 4206,
      "ĠSee": 4207,
      "ĠTexas": 4208,
      "Ġanaly": 4209,
      "ĠWater": 4210,
      "TS": 4211,
      "Ġhappened": 4212,
      "Ġguid": 4213,
      "sey": 4214,
      "Ġacadem": 4215,
      "DA": 4216,
      "lying": 4217,
      "ologies": 4218,
      "agram": 4219,
      "ĠEducation": 4220,
      "Ġweather": 4221,
      "Ġwindow": 4222,
      "ĠWhy": 4223,
      "Ġadvantage": 4224,
      "ĠGeneral": 4225,
      "CC": 4226,
      "Ġaccur": 4227,
      "bu": 4228,
      "ady": 4229,
      "Ġexisting": 4230,
      "inate": 4231,
      "Ġsurround": 4232,
      "amm": 4233,
      "ĠSl": 4234,
      "Ġfinish": 4235,
      "ifying": 4236,
      "Ġselection": 4237,
      "Ġstrength": 4238,
      "usion": 4239,
      "Ġmoved": 4240,
      "Ġannual": 4241,
      "ĠTuesday": 4242,
      "Ġpros": 4243,
      "Ġsy": 4244,
      "Ġhundred": 4245,
      "Ġchurch": 4246,
      "Ġscient": 4247,
      "ĠFound": 4248,
      "anging": 4249,
      "inese": 4250,
      "Ġhaven": 4251,
      "Ġideal": 4252,
      "overed": 4253,
      "ĠAv": 4254,
      "irus": 4255,
      "Ġcab": 4256,
      "inder": 4257,
      "Ġtend": 4258,
      "Ġchann": 4259,
      "Ġpartner": 4260,
      "Ġmicro": 4261,
      "Ġcritical": 4262,
      "ls": 4263,
      "Ġcells": 4264,
      "Ġgone": 4265,
      "Ġseeing": 4266,
      "ado": 4267,
      "Ġbottom": 4268,
      "Ġdedic": 4269,
      "CH": 4270,
      "ĠThursday": 4271,
      "Ġfiles": 4272,
      "Ġcof": 4273,
      "Ġpowerful": 4274,
      "ĠFlor": 4275,
      "rael": 4276,
      "Ġappropriate": 4277,
      "Ġwear": 4278,
      "text": 4279,
      "Ġletter": 4280,
      "Ġgift": 4281,
      "Ġhusband": 4282,
      "Ġmodels": 4283,
      "UR": 4284,
      "While": 4285,
      "Ġhelpful": 4286,
      "friend": 4287,
      "range": 4288,
      "ĠMart": 4289,
      "ĠAssociation": 4290,
      "Ġrequires": 4291,
      "umber": 4292,
      "Ġprotection": 4293,
      "ĠPrice": 4294,
      "Ġactual": 4295,
      "49": 4296,
      "Ġgarden": 4297,
      "ĠPublic": 4298,
      "ĠSur": 4299,
      "08": 4300,
      "Ġexpand": 4301,
      "Ġhomes": 4302,
      "ĠMicro": 4303,
      "ĠÐ": 4304,
      "Ġresponsible": 4305,
      "Ġguarant": 4306,
      "47": 4307,
      "Ġclot": 4308,
      "miss": 4309,
      "ĠSam": 4310,
      "Ġtrain": 4311,
      "ĠSa": 4312,
      "unn": 4313,
      "ĠLove": 4314,
      "Ġluck": 4315,
      "ĠInformation": 4316,
      "iques": 4317,
      "Ġoccas": 4318,
      "Ġdang": 4319,
      "Ġhelping": 4320,
      "Ġvoice": 4321,
      "Ġsup": 4322,
      "Ġobv": 4323,
      "Ġbatter": 4324,
      "Ġsharing": 4325,
      "Ġfactors": 4326,
      "Ġguy": 4327,
      "encies": 4328,
      "She": 4329,
      "standing": 4330,
      "Ġdirector": 4331,
      "ĠEngine": 4332,
      "Thanks": 4333,
      "well": 4334,
      "ios": 4335,
      "ĠSing": 4336,
      "porary": 4337,
      "lands": 4338,
      "iled": 4339,
      "Ġwild": 4340,
      "ipe": 4341,
      "Ġalbum": 4342,
      "Ġwhose": 4343,
      "Ġbackground": 4344,
      "ĠTime": 4345,
      "Ġappoint": 4346,
      "Ġguess": 4347,
      "Ġseven": 4348,
      "Ġincred": 4349,
      "ĠClick": 4350,
      "ĠChurch": 4351,
      "Ġpeace": 4352,
      "ĠTwitter": 4353,
      "pective": 4354,
      "Ġfinding": 4355,
      "Ġstream": 4356,
      "Ġcreative": 4357,
      "soft": 4358,
      "Ġeight": 4359,
      "apers": 4360,
      "ĠBig": 4361,
      "These": 4362,
      "ĠProduct": 4363,
      "ĠPower": 4364,
      "ĠSal": 4365,
      "Ġeconomy": 4366,
      "ĠAnge": 4367,
      "olic": 4368,
      "arge": 4369,
      "Ġcheap": 4370,
      "ros": 4371,
      "ĠPeople": 4372,
      "ĠMag": 4373,
      "04": 4374,
      "ae": 4375,
      "gn": 4376,
      "Ġir": 4377,
      "ĠÂ·": 4378,
      "ĠWin": 4379,
      "Ġtechnical": 4380,
      "erry": 4381,
      "31": 4382,
      "ĠRich": 4383,
      "ĠRepublic": 4384,
      "Ġvs": 4385,
      "ĠJames": 4386,
      "Ġfan": 4387,
      "ĠMake": 4388,
      "Ġdriving": 4389,
      "ĠWednesday": 4390,
      "ĠThank": 4391,
      "ĠIT": 4392,
      "ĠUse": 4393,
      "free": 4394,
      "07": 4395,
      "Ġfigure": 4396,
      "Ġopening": 4397,
      "Ġmanage": 4398,
      "state": 4399,
      "nding": 4400,
      "iced": 4401,
      "Des": 4402,
      "Ġgain": 4403,
      "Ġefforts": 4404,
      "Ġge": 4405,
      "Ġwouldn": 4406,
      "ota": 4407,
      "App": 4408,
      "mp": 4409,
      "ĠClub": 4410,
      "ĠOpen": 4411,
      "Ġslight": 4412,
      "Ġlarger": 4413,
      "ipped": 4414,
      "Ġfollowed": 4415,
      "Ġdecl": 4416,
      "Ġcoffee": 4417,
      "nded": 4418,
      "!!!": 4419,
      "ĠAP": 4420,
      "Ġprec": 4421,
      "ĠArch": 4422,
      "Ġgirls": 4423,
      "ĠCap": 4424,
      "using": 4425,
      "ona": 4426,
      "________": 4427,
      "Ġmentioned": 4428,
      "Ġcast": 4429,
      "ĠIS": 4430,
      "Ġtherefore": 4431,
      "iler": 4432,
      "46": 4433,
      "ror": 4434,
      "ĠLear": 4435,
      "Not": 4436,
      "Ġcollabor": 4437,
      "Rep": 4438,
      "500": 4439,
      "ĠRock": 4440,
      "Ġfinished": 4441,
      "Your": 4442,
      "Ġlearned": 4443,
      "ĠUSA": 4444,
      "Ġcove": 4445,
      "oes": 4446,
      "Ġfederal": 4447,
      "ĠBill": 4448,
      "Ġworkers": 4449,
      "ĠDri": 4450,
      "ĠWord": 4451,
      "acing": 4452,
      "Ġserved": 4453,
      ");": 4454,
      "Ġshared": 4455,
      "Ġdiscover": 4456,
      "Ġinfo": 4457,
      "itors": 4458,
      "Ġconnection": 4459,
      "Ġtruth": 4460,
      "Ġowner": 4461,
      "Ġbrain": 4462,
      "Ġmatt": 4463,
      "Ġreli": 4464,
      "Ġcompleted": 4465,
      "Ġentertain": 4466,
      "ula": 4467,
      "imb": 4468,
      "ĠFrench": 4469,
      "lor": 4470,
      "Ġwedding": 4471,
      "tenance": 4472,
      "Ġwat": 4473,
      "Ġbiggest": 4474,
      "ĠHist": 4475,
      "06": 4476,
      "TH": 4477,
      "Ġcamera": 4478,
      "Ġpsych": 4479,
      "09": 4480,
      "inally": 4481,
      "88": 4482,
      "Add": 4483,
      "ĠBay": 4484,
      "Ġanti": 4485,
      "Ġthoughts": 4486,
      "Ġestablish": 4487,
      "Ġkept": 4488,
      "Ġestablished": 4489,
      "Ġborn": 4490,
      "Don": 4491,
      "Ġsociety": 4492,
      "Ġresist": 4493,
      "ĠChild": 4494,
      "icks": 4495,
      "Ġdisapp": 4496,
      "ĠCong": 4497,
      "Ġsteel": 4498,
      "Ġharm": 4499,
      "cipe": 4500,
      "Ġpopulation": 4501,
      "Ġdrug": 4502,
      "rab": 4503,
      "Ġmilitary": 4504,
      "nect": 4505,
      "ĠBritish": 4506,
      "Ġheavy": 4507,
      "ĠProject": 4508,
      "ideo": 4509,
      "02": 4510,
      "ĠSuper": 4511,
      "unately": 4512,
      "Ġtraffic": 4513,
      "ĠSun": 4514,
      "anta": 4515,
      "Ġbrother": 4516,
      "cont": 4517,
      "asure": 4518,
      "Ġassign": 4519,
      "Ġentry": 4520,
      "ĠCur": 4521,
      "ĠMark": 4522,
      "osh": 4523,
      "Ġnamed": 4524,
      "oman": 4525,
      "VID": 4526,
      "ĠFood": 4527,
      "Ġsolid": 4528,
      "Ġscore": 4529,
      "rim": 4530,
      "Ġdiet": 4531,
      "Ġadop": 4532,
      "Ġefficient": 4533,
      "Ġelements": 4534,
      "Ġretail": 4535,
      "ĠVe": 4536,
      "Ġhighest": 4537,
      "Ġbedroom": 4538,
      "Ġvot": 4539,
      "ĠOF": 4540,
      "Ġbuying": 4541,
      "ĠElect": 4542,
      "Ġmovement": 4543,
      "rees": 4544,
      "RA": 4545,
      "ĠChristian": 4546,
      "Ġdemonstr": 4547,
      "Ġupdate": 4548,
      "ĠSince": 4549,
      "Ġton": 4550,
      "ĠSil": 4551,
      "Ġpieces": 4552,
      "unte": 4553,
      "Ġtim": 4554,
      "bl": 4555,
      "iency": 4556,
      "Ġbreat": 4557,
      "ette": 4558,
      "ĠDirector": 4559,
      "leg": 4560,
      "Ġdrop": 4561,
      "Ġbrows": 4562,
      "enses": 4563,
      "Ġcommunication": 4564,
      "ĠReport": 4565,
      "Ġjourney": 4566,
      "ĠSum": 4567,
      "Ġdat": 4568,
      "ribute": 4569,
      "Ġrelax": 4570,
      "Ġposts": 4571,
      "ĠDevelopment": 4572,
      "Ġlinks": 4573,
      "Ġcompl": 4574,
      "Ġcapacity": 4575,
      "OP": 4576,
      "Ġrepe": 4577,
      "Ġsuff": 4578,
      "Ġsecure": 4579,
      "ka": 4580,
      "Ġrefer": 4581,
      "DF": 4582,
      "actions": 4583,
      "vere": 4584,
      "Ġmist": 4585,
      "Ġhom": 4586,
      "yer": 4587,
      "Ġdetermine": 4588,
      "ĠTrump": 4589,
      "men": 4590,
      "aven": 4591,
      "vision": 4592,
      "Ġmaster": 4593,
      "77": 4594,
      "Ġconven": 4595,
      "ĠStr": 4596,
      "cel": 4597,
      "ĠOnce": 4598,
      "Ġinvestig": 4599,
      "Ġlock": 4600,
      "Ġolder": 4601,
      "From": 4602,
      "Ġchallenges": 4603,
      "Ġpray": 4604,
      "Ġshopping": 4605,
      "Ġbag": 4606,
      "Ġlimit": 4607,
      "Ġvill": 4608,
      "Ġpaint": 4609,
      "Ġdaughter": 4610,
      "ĠPet": 4611,
      "gency": 4612,
      "uman": 4613,
      "Ġwaiting": 4614,
      "Ġgraph": 4615,
      "Ġrat": 4616,
      "Ġestate": 4617,
      "ĠMal": 4618,
      "?\"": 4619,
      "ĠVol": 4620,
      "ĠMichael": 4621,
      "ĠRob": 4622,
      "ĠScience": 4623,
      "May": 4624,
      "ĠOh": 4625,
      "Ġcharacters": 4626,
      "how": 4627,
      "Ġwhatever": 4628,
      "ĠUnder": 4629,
      "met": 4630,
      "Ġlose": 4631,
      "Ġtesting": 4632,
      "Ġmanager": 4633,
      "Ġfashion": 4634,
      "oma": 4635,
      "semb": 4636,
      "udd": 4637,
      "Ġargu": 4638,
      "ĠðŁ": 4639,
      "Ġfaith": 4640,
      "Ġfunds": 4641,
      "NA": 4642,
      "rd": 4643,
      "ĠMary": 4644,
      "but": 4645,
      "ĠCamp": 4646,
      "Ġreality": 4647,
      "Ġtrading": 4648,
      "ĠVis": 4649,
      "CA": 4650,
      "Ġrank": 4651,
      "Ġexperiences": 4652,
      "Ġhandle": 4653,
      "Ġonto": 4654,
      "ya": 4655,
      "Ġclasses": 4656,
      "mar": 4657,
      "Ġvideos": 4658,
      "Ġvalues": 4659,
      "ĠAfrica": 4660,
      "ki": 4661,
      "top": 4662,
      "entially": 4663,
      "Ġiniti": 4664,
      "Ġstatus": 4665,
      "Ġrooms": 4666,
      "Ġabsolutely": 4667,
      "03": 4668,
      "ĠIsrael": 4669,
      "oop": 4670,
      "ĠCheck": 4671,
      "fin": 4672,
      "Ġ2006": 4673,
      "Ġpassed": 4674,
      "Ġincor": 4675,
      "Ġhospital": 4676,
      "oles": 4677,
      "Ġsto": 4678,
      "roud": 4679,
      "ĠBack": 4680,
      "Sc": 4681,
      "Ġcalc": 4682,
      "Ġcalls": 4683,
      "Ġleader": 4684,
      "Ġscen": 4685,
      "ĠWood": 4686,
      "PA": 4687,
      "Ġmemory": 4688,
      "rian": 4689,
      "Ġnovel": 4690,
      "Ġcounter": 4691,
      "BA": 4692,
      "ĠBet": 4693,
      "Ġmotor": 4694,
      "Ġcentral": 4695,
      "Ġknows": 4696,
      "Ġbow": 4697,
      "Ġnames": 4698,
      "CT": 4699,
      "Ġboy": 4700,
      "Ġtopic": 4701,
      "tra": 4702,
      "ampions": 4703,
      "icon": 4704,
      "Ġflex": 4705,
      "Ġorganizations": 4706,
      "ĠJew": 4707,
      "ĠApple": 4708,
      "Ġrob": 4709,
      "icken": 4710,
      "Ġhappens": 4711,
      "Ġload": 4712,
      "Ġoperations": 4713,
      "Ġpolic": 4714,
      "unction": 4715,
      "Ġsomew": 4716,
      "Ġplants": 4717,
      "Ġdirection": 4718,
      "ĠLike": 4719,
      "gment": 4720,
      "Â®": 4721,
      "osis": 4722,
      "osure": 4723,
      "ternal": 4724,
      "Ġboo": 4725,
      "Ġgovern": 4726,
      "ĠSen": 4727,
      "78": 4728,
      "Ġproduced": 4729,
      "ĠReal": 4730,
      "ĠLo": 4731,
      "Res": 4732,
      "Ġflu": 4733,
      "estival": 4734,
      "ĠThom": 4735,
      "Ġbalance": 4736,
      "MS": 4737,
      "Ġnumerous": 4738,
      "ander": 4739,
      "Ġplenty": 4740,
      "Ġkeeping": 4741,
      "Ġaudience": 4742,
      "Ġdriver": 4743,
      "Ġcovered": 4744,
      "press": 4745,
      "alls": 4746,
      "Ġcookies": 4747,
      "Ġstandards": 4748,
      "Ġadvance": 4749,
      "ĠMach": 4750,
      "ĠCustom": 4751,
      "ervation": 4752,
      "Ġfootball": 4753,
      "Ġflav": 4754,
      "ĠCB": 4755,
      "Ġbought": 4756,
      "ĠLake": 4757,
      "osition": 4758,
      "Ġdeveloping": 4759,
      "Ġcontinued": 4760,
      "itness": 4761,
      "ĠFlorida": 4762,
      "ĠChinese": 4763,
      "atically": 4764,
      "Ġtask": 4765,
      "Ġfill": 4766,
      "Ġmeant": 4767,
      "ĠPress": 4768,
      "Ġremove": 4769,
      "Ġexhib": 4770,
      "Me": 4771,
      "Ġspring": 4772,
      "Ġsources": 4773,
      "Ġdepos": 4774,
      "Ġbutton": 4775,
      "works": 4776,
      "isation": 4777,
      "ellow": 4778,
      "Ġstone": 4779,
      "ĠAmazon": 4780,
      "Ġfol": 4781,
      "Ġteaching": 4782,
      "ommod": 4783,
      "Ġcompar": 4784,
      "Ġdecide": 4785,
      "ĠRiver": 4786,
      "ĠAtt": 4787,
      "Ġ35": 4788,
      "Ġrepair": 4789,
      "ĠStar": 4790,
      "Ġcars": 4791,
      "pet": 4792,
      "Ġsty": 4793,
      "Ġstation": 4794,
      "olar": 4795,
      "66": 4796,
      "ĠJo": 4797,
      "Ġdescribed": 4798,
      "Ġmetal": 4799,
      "Ġforms": 4800,
      "Ġdoctor": 4801,
      "Ġholiday": 4802,
      "Ġpresented": 4803,
      "ferences": 4804,
      "Ġprepared": 4805,
      "net": 4806,
      "Ġrelevant": 4807,
      "Ġcraft": 4808,
      "itar": 4809,
      "Ġfriendly": 4810,
      "Ġforeign": 4811,
      "Thank": 4812,
      "Ġmajority": 4813,
      "ĠMain": 4814,
      "ĠBecause": 4815,
      "ĠMount": 4816,
      "Ġ80": 4817,
      "Ġsurg": 4818,
      "Ġsector": 4819,
      "ĠEach": 4820,
      "Ġbeg": 4821,
      "Some": 4822,
      "Ġrestaurant": 4823,
      "Ġ90": 4824,
      "Ġwelcome": 4825,
      "Please": 4826,
      "ctors": 4827,
      "ĠAbout": 4828,
      "Ġrich": 4829,
      "ĠData": 4830,
      "Ġexercise": 4831,
      "Ġexclus": 4832,
      "Why": 4833,
      "riage": 4834,
      "ĠCA": 4835,
      "Ġlaunch": 4836,
      "antic": 4837,
      "ĠInstitute": 4838,
      "ech": 4839,
      "ĠEngland": 4840,
      "Ġinsp": 4841,
      "ga": 4842,
      "ĠLord": 4843,
      "with": 4844,
      "rad": 4845,
      "Ġserver": 4846,
      "Ġapprox": 4847,
      "âĢ¦]": 4848,
      "Ġrare": 4849,
      "Ġfacilities": 4850,
      "ĠPR": 4851,
      "Ġmission": 4852,
      "azine": 4853,
      "olate": 4854,
      "ception": 4855,
      "ĠMil": 4856,
      "ĠPay": 4857,
      "Ġwinter": 4858,
      "bed": 4859,
      "Ġsounds": 4860,
      "****": 4861,
      "Ġplaced": 4862,
      "Ġfram": 4863,
      "ĠSocial": 4864,
      "inct": 4865,
      "Ġtree": 4866,
      "Ġevening": 4867,
      "orry": 4868,
      "Ġcourses": 4869,
      "Ġstreet": 4870,
      "Ġfish": 4871,
      "Ġcompetition": 4872,
      "Ġdiscount": 4873,
      "Ġinitial": 4874,
      "Ġshape": 4875,
      "Qu": 4876,
      "ĠNov": 4877,
      "Ġlisted": 4878,
      "ĠBen": 4879,
      "Ġruns": 4880,
      "active": 4881,
      "âĢĿ.": 4882,
      "ipp": 4883,
      "vention": 4884,
      "Ġconference": 4885,
      "Ġadding": 4886,
      "Ġfabric": 4887,
      "Ġgun": 4888,
      "ĠMusic": 4889,
      "ĠPhil": 4890,
      "Ġcentury": 4891,
      "Ġadvanced": 4892,
      "Ġschedule": 4893,
      "Ġcommunities": 4894,
      "ĠMiss": 4895,
      "Ġmagn": 4896,
      "ĠCommission": 4897,
      "ooper": 4898,
      "ĠLou": 4899,
      "Ġexperts": 4900,
      "weet": 4901,
      "Ġdepartment": 4902,
      "enture": 4903,
      "ĠBlue": 4904,
      "ĠCas": 4905,
      "Ġhttp": 4906,
      "Ġbecomes": 4907,
      "Ġdelic": 4908,
      "rowd": 4909,
      "Ġcontains": 4910,
      "iers": 4911,
      "ront": 4912,
      "Ġsession": 4913,
      "Ġforget": 4914,
      "Ġparties": 4915,
      "uration": 4916,
      "Ġalternative": 4917,
      "point": 4918,
      "Ġsecret": 4919,
      "Ġproperties": 4920,
      "ĠAlthough": 4921,
      "inn": 4922,
      "rete": 4923,
      "ĠMatt": 4924,
      "Ġsch": 4925,
      "Ġclosed": 4926,
      "Ġrap": 4927,
      "Ġsenior": 4928,
      "Ġthus": 4929,
      "ums": 4930,
      "Ġshowed": 4931,
      "rip": 4932,
      "cket": 4933,
      "Ġesc": 4934,
      "Ġremains": 4935,
      "Ġprot": 4936,
      "Ġclaims": 4937,
      "Ġhonest": 4938,
      "ented": 4939,
      "OD": 4940,
      "Ġimpl": 4941,
      "Ġearth": 4942,
      "Ġingred": 4943,
      "Ġcaused": 4944,
      "ĠYes": 4945,
      "unning": 4946,
      "Ġconcent": 4947,
      "ĠProfess": 4948,
      "Ġeth": 4949,
      "Ġoptim": 4950,
      "Ġexcited": 4951,
      "no": 4952,
      "Ġspending": 4953,
      "Ġsmaller": 4954,
      "Ġmap": 4955,
      "Ġprocessing": 4956,
      "Ġcoverage": 4957,
      "Ġarticles": 4958,
      "ĠHotel": 4959,
      "Ġwatching": 4960,
      "En": 4961,
      "Ġclearly": 4962,
      "IA": 4963,
      "Ġoperating": 4964,
      "ini": 4965,
      "Ġwebsites": 4966,
      "ENT": 4967,
      "ĠExper": 4968,
      "ĠGovernment": 4969,
      "ĠFire": 4970,
      "ixt": 4971,
      "Ġwine": 4972,
      "Phone": 4973,
      "Ġcontinues": 4974,
      "night": 4975,
      "LC": 4976,
      "Ġopinion": 4977,
      "berg": 4978,
      "Ġtoward": 4979,
      "fit": 4980,
      "Ġcris": 4981,
      "olly": 4982,
      "Ġgrant": 4983,
      "ĠFamily": 4984,
      "Ġwaste": 4985,
      "ructure": 4986,
      "Ġestim": 4987,
      "ĠBeach": 4988,
      "idering": 4989,
      "Ġthousands": 4990,
      "Ġmort": 4991,
      "ĠCentral": 4992,
      "Ġpassion": 4993,
      "Ġcolors": 4994,
      "gage": 4995,
      "icago": 4996,
      "Ġsitu": 4997,
      "Ġtotally": 4998,
      "ishes": 4999,
      "ĠTom": 5000,
      "Ġmarkets": 5001,
      "Ġdied": 5002,
      "Ġquant": 5003,
      "Ġsustain": 5004,
      "Ġexpensive": 5005,
      "Ġactions": 5006,
      "Ġrecords": 5007,
      "idential": 5008,
      "Ġcompre": 5009,
      "Ġshowing": 5010,
      "Ġmo": 5011,
      "Ġdiscussion": 5012,
      "Ġseparate": 5013,
      "].": 5014,
      "Ġarchitect": 5015,
      "Ġcloud": 5016,
      "ection": 5017,
      "ĠBuild": 5018,
      "Ġwilling": 5019,
      "Ġpair": 5020,
      "Ġcivil": 5021,
      "estic": 5022,
      "pond": 5023,
      "Ġselling": 5024,
      "Ġrid": 5025,
      "reek": 5026,
      "Ġconnected": 5027,
      "uty": 5028,
      "Ġap": 5029,
      "Ġcatch": 5030,
      "Ġsem": 5031,
      "Ġbecoming": 5032,
      "Ġworry": 5033,
      "Ste": 5034,
      "rical": 5035,
      "Ġexpress": 5036,
      "Ġdecisions": 5037,
      "Ġpractices": 5038,
      "ĠLight": 5039,
      "Ġign": 5040,
      "edia": 5041,
      "ĠToday": 5042,
      "Ke": 5043,
      "Ġtypically": 5044,
      "Ġspl": 5045,
      "irgin": 5046,
      "Ġdiagn": 5047,
      "Ġscene": 5048,
      "ĠHill": 5049,
      "ĠSpecial": 5050,
      "Ġtemperature": 5051,
      "Ġepis": 5052,
      "Ġdistance": 5053,
      "race": 5054,
      "ĠShow": 5055,
      "Ġfurniture": 5056,
      "itz": 5057,
      "Ġice": 5058,
      "ĠCD": 5059,
      "Ġselected": 5060,
      "ĠList": 5061,
      "Acc": 5062,
      "Ġhttps": 5063,
      "abilities": 5064,
      "ĠMot": 5065,
      "ĠRE": 5066,
      "ola": 5067,
      "ĠIndust": 5068,
      "Just": 5069,
      "ĠMedia": 5070,
      "Ġbul": 5071,
      "Ġchair": 5072,
      "Ġexplore": 5073,
      "=\"": 5074,
      "Ġbathroom": 5075,
      "asks": 5076,
      "ĠDownload": 5077,
      "Ġassistance": 5078,
      "Ġappears": 5079,
      "Ġpossibly": 5080,
      "ĠCommit": 5081,
      "Ġagreement": 5082,
      "Ġopened": 5083,
      "PR": 5084,
      "Ġcoach": 5085,
      "ĠFull": 5086,
      "Ġsouth": 5087,
      "illa": 5088,
      "Ġleadership": 5089,
      "Ġdebt": 5090,
      "list": 5091,
      "Ġcleaning": 5092,
      "Ġtrial": 5093,
      "ĠWomen": 5094,
      "iliar": 5095,
      "Ġsmooth": 5096,
      "ĠDig": 5097,
      "hi": 5098,
      "Ġminute": 5099,
      "Ġstarts": 5100,
      "Ġinspir": 5101,
      "Ġchanging": 5102,
      "ĠSmith": 5103,
      "win": 5104,
      "ĠTechnology": 5105,
      "ĠJer": 5106,
      "Ġenjoyed": 5107,
      "ifts": 5108,
      "Ġ2005": 5109,
      "Ġindependent": 5110,
      "ano": 5111,
      "Ġcitiz": 5112,
      "craft": 5113,
      "Ġbeat": 5114,
      "Ġacademic": 5115,
      "Ġprofessionals": 5116,
      "amin": 5117,
      "ĠJul": 5118,
      "Ġtechniques": 5119,
      "Ġdespite": 5120,
      "Ġcore": 5121,
      "going": 5122,
      "Bl": 5123,
      "Ġbeach": 5124,
      "Ġproud": 5125,
      "Ġ70": 5126,
      "Ġended": 5127,
      "outs": 5128,
      "ste": 5129,
      "Ġkid": 5130,
      "ĠDi": 5131,
      "59": 5132,
      "oor": 5133,
      "Can": 5134,
      "Ġoperation": 5135,
      "Ġwire": 5136,
      "coin": 5137,
      "Ġpackage": 5138,
      "ĠBrown": 5139,
      "outhern": 5140,
      "UT": 5141,
      "Ġfamous": 5142,
      "Ġresidents": 5143,
      "Ġdesk": 5144,
      "Ġbright": 5145,
      "Ġdram": 5146,
      "Ġawesome": 5147,
      "Ġleaving": 5148,
      "Ġur": 5149,
      "Ġfee": 5150,
      "Ġbehavior": 5151,
      "Ġotherwise": 5152,
      "Ġmental": 5153,
      "Ġcombination": 5154,
      "Ġtaste": 5155,
      "Ġdedicated": 5156,
      "Ġrelationships": 5157,
      "Ġflat": 5158,
      "Ġnegative": 5159,
      "igence": 5160,
      "gl": 5161,
      "Ġidentify": 5162,
      "ĠTeam": 5163,
      "ĠConst": 5164,
      "Ġfantastic": 5165,
      "uled": 5166,
      "Ġteacher": 5167,
      "aked": 5168,
      "Ġputting": 5169,
      "ĠAlex": 5170,
      "56": 5171,
      "ĠMex": 5172,
      "Ġmining": 5173,
      "fection": 5174,
      "ĠTest": 5175,
      "Ġvision": 5176,
      "EW": 5177,
      "Ġcream": 5178,
      "Ġmail": 5179,
      "ĠCard": 5180,
      "Ġjournal": 5181,
      "ĠColor": 5182,
      "ĠHol": 5183,
      "ifications": 5184,
      "Ġvisitors": 5185,
      "Ġpresence": 5186,
      "ĠIsland": 5187,
      "58": 5188,
      "Ġsnow": 5189,
      "Ġswitch": 5190,
      "Ġenhance": 5191,
      "OC": 5192,
      "ulture": 5193,
      "uality": 5194,
      "known": 5195,
      "Ġprofile": 5196,
      "Ġvote": 5197,
      "SP": 5198,
      "umin": 5199,
      "Ġadapt": 5200,
      "orney": 5201,
      "eared": 5202,
      "Ġinjury": 5203,
      "ĠPolicy": 5204,
      "Ġdim": 5205,
      "ye": 5206,
      "Ġfunding": 5207,
      "Ġfuel": 5208,
      "edy": 5209,
      "Ġfees": 5210,
      "ĠEqu": 5211,
      "Ġdinner": 5212,
      "ĠLink": 5213,
      "IR": 5214,
      "ĠFind": 5215,
      "AG": 5216,
      "Ġclassic": 5217,
      "Ġpreviously": 5218,
      "Ġaccommod": 5219,
      "Ġguests": 5220,
      "ĠAND": 5221,
      "UN": 5222,
      "ĠGrand": 5223,
      "ĠTre": 5224,
      "Ġhyd": 5225,
      "ĠTwo": 5226,
      "Ġjump": 5227,
      "ĠBer": 5228,
      "spe": 5229,
      "Ġfocused": 5230,
      "ĠAL": 5231,
      "ĠBi": 5232,
      "Ġmine": 5233,
      "ĠPage": 5234,
      "Ġpolicies": 5235,
      "Ġmaintenance": 5236,
      "Ġexchange": 5237,
      "Ġeffic": 5238,
      "isher": 5239,
      "ship": 5240,
      "hab": 5241,
      "Ġprocesses": 5242,
      "Ġrecipe": 5243,
      "icip": 5244,
      "Ġupgr": 5245,
      "Ġteachers": 5246,
      "fol": 5247,
      "Ġlegis": 5248,
      "atin": 5249,
      "ĠComments": 5250,
      "Ġappeal": 5251,
      "Ġsugar": 5252,
      "Ġraised": 5253,
      "Up": 5254,
      "Ġglo": 5255,
      "esterday": 5256,
      "Ġeating": 5257,
      "ĠNY": 5258,
      "ĠSy": 5259,
      "Ġvisual": 5260,
      "ĠCrus": 5261,
      "Ġbeauty": 5262,
      "Ġapplied": 5263,
      "Ġshut": 5264,
      "Ġlaun": 5265,
      "Ġneighbor": 5266,
      "42": 5267,
      "ĠPhot": 5268,
      "Ġmostly": 5269,
      "Ġrule": 5270,
      "Ġconcerns": 5271,
      "Ġtheme": 5272,
      "ĠSecurity": 5273,
      "life": 5274,
      "ita": 5275,
      "ĠLong": 5276,
      "Ġspect": 5277,
      "ups": 5278,
      "Ġdocuments": 5279,
      "Ġsched": 5280,
      "Ġegg": 5281,
      "Ġagency": 5282,
      "eed": 5283,
      "Ġplastic": 5284,
      "Ġproperly": 5285,
      "Ġmedium": 5286,
      "Ġdoubt": 5287,
      "Ġ:)": 5288,
      "Ð¾": 5289,
      "Ġsympt": 5290,
      "Ġasking": 5291,
      "Ġformat": 5292,
      "Ġprinci": 5293,
      "Ġmanaged": 5294,
      "Ġanimals": 5295,
      "Ġthrow": 5296,
      "pons": 5297,
      "Ġvalid": 5298,
      "Che": 5299,
      "ĠIts": 5300,
      "ĠMass": 5301,
      "Ġapart": 5302,
      "Ġcorner": 5303,
      "ĠSand": 5304,
      "ĠTheir": 5305,
      "ĠID": 5306,
      "Ġlovely": 5307,
      "Ġ500": 5308,
      "Ġminimum": 5309,
      "ĠMad": 5310,
      "ucle": 5311,
      "Ġwinning": 5312,
      "Ġscale": 5313,
      "ĠLead": 5314,
      "ĠEnter": 5315,
      "Ġleaves": 5316,
      "Us": 5317,
      "Ġcart": 5318,
      "Ġunc": 5319,
      "Ġupdated": 5320,
      "ĠStand": 5321,
      "Ġhar": 5322,
      "Ġarm": 5323,
      "rolled": 5324,
      "ĠRad": 5325,
      "Ġroof": 5326,
      "Ġsets": 5327,
      "Ġcircum": 5328,
      "cohol": 5329,
      "Ġwalking": 5330,
      "bre": 5331,
      "Ġbrief": 5332,
      "ĠSet": 5333,
      "prise": 5334,
      "Ġseemed": 5335,
      "ĠMer": 5336,
      "Ġtests": 5337,
      "ĠDiv": 5338,
      "Ġfold": 5339,
      "istan": 5340,
      "Ġiron": 5341,
      "Ġunits": 5342,
      "IF": 5343,
      "><": 5344,
      "43": 5345,
      "Tr": 5346,
      "ĠFil": 5347,
      "uries": 5348,
      "57": 5349,
      "Ġstars": 5350,
      "ĠHave": 5351,
      "Ġmulti": 5352,
      "Ġrain": 5353,
      "Ġaccompl": 5354,
      "ocolate": 5355,
      "ĠTor": 5356,
      "ĠManager": 5357,
      "Ġsport": 5358,
      "Ġstrategies": 5359,
      "Ġvolunte": 5360,
      "td": 5361,
      "ĠTimes": 5362,
      "Ġerror": 5363,
      "bol": 5364,
      "Ġleads": 5365,
      "Ġ[âĢ¦]": 5366,
      "emic": 5367,
      "ĠTur": 5368,
      "Ġlabor": 5369,
      "fortunately": 5370,
      "Ġnor": 5371,
      "Pre": 5372,
      "asp": 5373,
      "ĠAcadem": 5374,
      "ĠOld": 5375,
      "Ġmeasures": 5376,
      "ĠMedical": 5377,
      "Ind": 5378,
      "pan": 5379,
      "Hi": 5380,
      "kin": 5381,
      "Ġnotes": 5382,
      "ius": 5383,
      "Ġkill": 5384,
      "Im": 5385,
      "ava": 5386,
      "Ġrecommended": 5387,
      "Ġcorporate": 5388,
      "ĠJournal": 5389,
      "nergy": 5390,
      "Ġartist": 5391,
      "ĠObama": 5392,
      "Ġpal": 5393,
      "SA": 5394,
      "ĠTO": 5395,
      "Ġapps": 5396,
      "ht": 5397,
      "41": 5398,
      "Ġstores": 5399,
      "rupt": 5400,
      "ario": 5401,
      "orter": 5402,
      "Ġbrings": 5403,
      "pat": 5404,
      "Ġcabin": 5405,
      "Ġplug": 5406,
      "iance": 5407,
      "ĠValley": 5408,
      "urd": 5409,
      "Ġelement": 5410,
      "About": 5411,
      "Ġencourage": 5412,
      "Ġcred": 5413,
      "Ġclimate": 5414,
      "Ġveget": 5415,
      "you": 5416,
      "ĠCall": 5417,
      "cher": 5418,
      "ĠCOVID": 5419,
      "Ġexciting": 5420,
      "Ġlaws": 5421,
      "appy": 5422,
      "Ġcrowd": 5423,
      "ĠPriv": 5424,
      "Ġpredict": 5425,
      "Ġfactor": 5426,
      "ĠLu": 5427,
      "ĠCommittee": 5428,
      "olars": 5429,
      "abase": 5430,
      "Ġloans": 5431,
      "anda": 5432,
      "ĠDistrict": 5433,
      "Ġ2000": 5434,
      "ĠQue": 5435,
      "Ġgeneration": 5436,
      "Ġride": 5437,
      "ĠCarol": 5438,
      "Ġadministration": 5439,
      "ĠLeague": 5440,
      "Ġunless": 5441,
      "Ĥ¬": 5442,
      "Ġfunctions": 5443,
      "ĠWall": 5444,
      "Ġtransform": 5445,
      "lines": 5446,
      "Ġlisten": 5447,
      "Ġsequ": 5448,
      "Ġpoll": 5449,
      "Ġuniversity": 5450,
      "Ġwindows": 5451,
      "View": 5452,
      "Ġdyn": 5453,
      "Ġcomponents": 5454,
      "ĠOrgan": 5455,
      "roy": 5456,
      "inos": 5457,
      "Ġyes": 5458,
      "Ġder": 5459,
      "elines": 5460,
      "which": 5461,
      "68": 5462,
      "ears": 5463,
      "Ġpanel": 5464,
      "FL": 5465,
      "Ġengineering": 5466,
      "Ġsav": 5467,
      "Ġsea": 5468,
      "Ġship": 5469,
      "Ġstated": 5470,
      "cient": 5471,
      "Ġjoint": 5472,
      "pot": 5473,
      "Ġenvironmental": 5474,
      "Ġpoly": 5475,
      "ĠRoy": 5476,
      "uable": 5477,
      "Ġaid": 5478,
      "ĠInf": 5479,
      "Ðµ": 5480,
      "Ġreference": 5481,
      "Ġcategory": 5482,
      "Ġinstance": 5483,
      "aser": 5484,
      "Ġchemical": 5485,
      "rag": 5486,
      "orthern": 5487,
      "while": 5488,
      "Yes": 5489,
      "Ġrise": 5490,
      "Ġbird": 5491,
      "Ġofficials": 5492,
      "Spe": 5493,
      "ĠMen": 5494,
      "ĠCongress": 5495,
      "Ġslightly": 5496,
      "isco": 5497,
      "Man": 5498,
      "ĠMa": 5499,
      "ĠLand": 5500,
      "Ġperformed": 5501,
      "Ġban": 5502,
      "ĠFoundation": 5503,
      "bour": 5504,
      "Ġrecip": 5505,
      "osen": 5506,
      "equ": 5507,
      "ĠNor": 5508,
      "Ġnorth": 5509,
      "ersonal": 5510,
      "Ġcontext": 5511,
      "rate": 5512,
      "ĠFort": 5513,
      "ĠInvest": 5514,
      "Ġfeels": 5515,
      "ĠSoft": 5516,
      "LA": 5517,
      "Ġseeking": 5518,
      "icians": 5519,
      "ĠGeorge": 5520,
      "Ġdetect": 5521,
      "ĠUN": 5522,
      "Ġimportance": 5523,
      "Ġseek": 5524,
      "Ġsurvey": 5525,
      "van": 5526,
      "iat": 5527,
      "Ġexplain": 5528,
      "ĠÃ": 5529,
      "Ġvolume": 5530,
      "ĠLast": 5531,
      "Ġoutdoor": 5532,
      "Ġshipping": 5533,
      "eless": 5534,
      "Well": 5535,
      "Ġrot": 5536,
      "Ġthr": 5537,
      "Ġdeals": 5538,
      "However": 5539,
      "Ġedge": 5540,
      "Ġnav": 5541,
      "Ġimpress": 5542,
      "tr": 5543,
      "Ġmenu": 5544,
      "essions": 5545,
      "Ġelim": 5546,
      "Ġhearing": 5547,
      "Ġfilled": 5548,
      "iner": 5549,
      "Ġbusy": 5550,
      "ĠWho": 5551,
      "Ġframe": 5552,
      "Ġspecifically": 5553,
      "ĠMel": 5554,
      "Ġtow": 5555,
      "ĠHead": 5556,
      "Ġkick": 5557,
      "Last": 5558,
      "Ġaccident": 5559,
      "Ġinternal": 5560,
      "hensive": 5561,
      "Ġdecre": 5562,
      "Ġinfluence": 5563,
      "zen": 5564,
      "ĠMedic": 5565,
      "tered": 5566,
      "allery": 5567,
      "ĠChicago": 5568,
      "Ġlocations": 5569,
      "ĠJun": 5570,
      "Ġdie": 5571,
      "Ġ45": 5572,
      "Ġseat": 5573,
      "ĠScott": 5574,
      "Ð°": 5575,
      "Ġdetailed": 5576,
      "Ġmachines": 5577,
      "Ġtough": 5578,
      "Ġreached": 5579,
      "Ġmotiv": 5580,
      "ensions": 5581,
      "ĠRest": 5582,
      "?âĢĿ": 5583,
      "Ġmissing": 5584,
      "Pr": 5585,
      "79": 5586,
      "Ġeventually": 5587,
      "Ġallowing": 5588,
      "ĠAud": 5589,
      "Ġrub": 5590,
      "ĠDemocr": 5591,
      "burg": 5592,
      "ĠSign": 5593,
      "Ġconfig": 5594,
      "ait": 5595,
      "adian": 5596,
      "Ġchoices": 5597,
      "See": 5598,
      "ĠStart": 5599,
      "Ġchat": 5600,
      "ml": 5601,
      "Ġu": 5602,
      "Ġmaximum": 5603,
      "ĠLog": 5604,
      "ĠOffic": 5605,
      "Ġconsumers": 5606,
      "BS": 5607,
      "Ġvictim": 5608,
      "ĠHand": 5609,
      "ĠUnion": 5610,
      "ĠGame": 5611,
      "Ġvan": 5612,
      "ena": 5613,
      "ĠAndroid": 5614,
      "Ġadvertising": 5615,
      "ĠHam": 5616,
      "reens": 5617,
      "Ġbattle": 5618,
      "Ġfacility": 5619,
      "Ġaspects": 5620,
      "Ġlux": 5621,
      "idden": 5622,
      "Ġbattery": 5623,
      "Ġconsidering": 5624,
      "Mar": 5625,
      "otic": 5626,
      "Ġ)": 5627,
      "ĠParty": 5628,
      "ĠLim": 5629,
      "Ġmanner": 5630,
      "Ġmir": 5631,
      "Ġprovider": 5632,
      "ĠTake": 5633,
      "arrant": 5634,
      "oses": 5635,
      "Ġdesigns": 5636,
      "ĠPack": 5637,
      "ograp": 5638,
      "Ġparking": 5639,
      "ala": 5640,
      "Ġaccounts": 5641,
      "cean": 5642,
      "igan": 5643,
      "riting": 5644,
      "Ġboost": 5645,
      "Bu": 5646,
      "mary": 5647,
      "Ġforg": 5648,
      "comm": 5649,
      "Ġwriter": 5650,
      "ĠFrance": 5651,
      "Ġdesire": 5652,
      "Ġcities": 5653,
      "Ġbond": 5654,
      "inating": 5655,
      "ĠPub": 5656,
      "ĠFranc": 5657,
      "ĠNetwork": 5658,
      "yan": 5659,
      "ĠJob": 5660,
      "CE": 5661,
      "ĠAccording": 5662,
      "69": 5663,
      "Am": 5664,
      "Ġbonus": 5665,
      "ĠMicrosoft": 5666,
      "uce": 5667,
      "ender": 5668,
      "emporary": 5669,
      "Ġkinds": 5670,
      "Ġdistrict": 5671,
      "ĠHy": 5672,
      "aks": 5673,
      "ĠSeries": 5674,
      "ĠOper": 5675,
      "Ġreaders": 5676,
      "!\"": 5677,
      "ĠEr": 5678,
      "SE": 5679,
      "inations": 5680,
      "Ġdefense": 5681,
      "ĠTim": 5682,
      "rency": 5683,
      "Ġsigned": 5684,
      "Ġresponsibility": 5685,
      "Ġ2004": 5686,
      "ĠGlobal": 5687,
      "Ġradio": 5688,
      "ĠAdv": 5689,
      "Ġindustrial": 5690,
      "Ġthick": 5691,
      "Ġnurs": 5692,
      "Tw": 5693,
      "Ġtherapy": 5694,
      "Ġglad": 5695,
      "Ġfavour": 5696,
      "Ġholding": 5697,
      "Ġspecies": 5698,
      "Ġrealize": 5699,
      "Ġfeedback": 5700,
      "Ġment": 5701,
      "Ġplays": 5702,
      "Ġremoved": 5703,
      "Ġreco": 5704,
      "ivered": 5705,
      "Ġsitting": 5706,
      "Ġartists": 5707,
      "Ġpromote": 5708,
      "ĠGen": 5709,
      "Ġminor": 5710,
      "ĠAccess": 5711,
      "Ġsongs": 5712,
      "Ġjoined": 5713,
      "rastructure": 5714,
      "rome": 5715,
      ".[": 5716,
      "à¤": 5717,
      "Ġliqu": 5718,
      "look": 5719,
      "Ġreb": 5720,
      "Ġraise": 5721,
      "Ġingredients": 5722,
      "Ġrapid": 5723,
      "ĠCEO": 5724,
      "Ġdepending": 5725,
      "Ġslot": 5726,
      "den": 5727,
      "cipl": 5728,
      "Ġfamiliar": 5729,
      "athe": 5730,
      "ĠDen": 5731,
      "ĠSupport": 5732,
      "poration": 5733,
      "ician": 5734,
      "ĠFund": 5735,
      "Ġju": 5736,
      "Ġtight": 5737,
      "merce": 5738,
      "Ġarrange": 5739,
      "Ġpush": 5740,
      "ĠIll": 5741,
      "ĠWeek": 5742,
      "noon": 5743,
      "Ġpaying": 5744,
      "ĠBuy": 5745,
      "Ġmovies": 5746,
      "Every": 5747,
      "Ġsigns": 5748,
      "ĠGermany": 5749,
      "Ġlandsc": 5750,
      "ĠSup": 5751,
      "Ġfreed": 5752,
      "ĠIP": 5753,
      "Ġintell": 5754,
      "een": 5755,
      "xy": 5756,
      "ulous": 5757,
      "Ġelection": 5758,
      "Ġinterests": 5759,
      "ĠGerman": 5760,
      "lets": 5761,
      "Ġyouth": 5762,
      "Ġdogs": 5763,
      "Ġsuitable": 5764,
      "Ġrevenue": 5765,
      "Ġtrees": 5766,
      "TC": 5767,
      "ĠGuide": 5768,
      "date": 5769,
      "oration": 5770,
      "Ġ32": 5771,
      "Ġvacc": 5772,
      "ĠAtl": 5773,
      "Ġquiet": 5774,
      "ĠKore": 5775,
      "ĠSociety": 5776,
      "Ġconfidence": 5777,
      "loc": 5778,
      "ulty": 5779,
      "Ġvehicles": 5780,
      "odies": 5781,
      "ĠSports": 5782,
      "Ġexamples": 5783,
      "Ġapproximately": 5784,
      "Ġcrim": 5785,
      "Ġsymptoms": 5786,
      "Ġteach": 5787,
      "ĠMont": 5788,
      "ĠWil": 5789,
      "ĠTown": 5790,
      "Ġris": 5791,
      "Ġwhom": 5792,
      "ĠCy": 5793,
      "ĠLab": 5794,
      "sm": 5795,
      "64": 5796,
      "Ġmarried": 5797,
      "OV": 5798,
      "ĠDuring": 5799,
      "Ġanywhere": 5800,
      "poses": 5801,
      "Ġassum": 5802,
      "Ġremind": 5803,
      "ĠBur": 5804,
      "Ġcircumst": 5805,
      "Ġmode": 5806,
      "ĠDou": 5807,
      "ua": 5808,
      "Ġgrade": 5809,
      "Ġconversation": 5810,
      "Ġunivers": 5811,
      "ometimes": 5812,
      "estyle": 5813,
      "Ġhousing": 5814,
      "kins": 5815,
      "Ġshares": 5816,
      "Ġemergency": 5817,
      "Ġlibrary": 5818,
      "Ġfaster": 5819,
      "ĠWestern": 5820,
      "ĠMinister": 5821,
      "iveness": 5822,
      "iest": 5823,
      "Ġpus": 5824,
      "Ġconstruct": 5825,
      "Ġfixed": 5826,
      "Ed": 5827,
      "Ġuns": 5828,
      "Ġinstalled": 5829,
      "Ġreturned": 5830,
      "II": 5831,
      "alog": 5832,
      "Ġoccup": 5833,
      "can": 5834,
      "anish": 5835,
      "Ġremote": 5836,
      "Ġconsumer": 5837,
      "ĠProte": 5838,
      "ĠFrank": 5839,
      "ĠAuthor": 5840,
      "Ġwal": 5841,
      "ĠMaster": 5842,
      "Ġcommitted": 5843,
      "abled": 5844,
      "Ġintroduced": 5845,
      "Ġok": 5846,
      "Ġmouth": 5847,
      "never": 5848,
      "ien": 5849,
      "Ġfemale": 5850,
      "ĠPan": 5851,
      "ĠOnly": 5852,
      "paper": 5853,
      "Ġextensive": 5854,
      "Ġswim": 5855,
      "ĠVer": 5856,
      "ĠVirgin": 5857,
      "ĠGar": 5858,
      "Ġaffordable": 5859,
      "Ġkilled": 5860,
      "eah": 5861,
      "Ġclinical": 5862,
      "ĠEss": 5863,
      "Ġseconds": 5864,
      "Ġbreakfast": 5865,
      "ii": 5866,
      "67": 5867,
      "ca": 5868,
      "Ġcombined": 5869,
      "ĠCup": 5870,
      "Ġserving": 5871,
      "Ġproviders": 5872,
      "ĠRobert": 5873,
      "Ġappreciate": 5874,
      "Ġalle": 5875,
      "bsite": 5876,
      "ĠDev": 5877,
      "Ġrom": 5878,
      "ĠBas": 5879,
      ".'": 5880,
      "Ġprepare": 5881,
      "Ġourselves": 5882,
      "Ġregister": 5883,
      "phas": 5884,
      "Ġchart": 5885,
      "ĠReviews": 5886,
      "ĠON": 5887,
      "Ġsample": 5888,
      "water": 5889,
      "related": 5890,
      "Ġpump": 5891,
      "Ġfields": 5892,
      "Ġsquare": 5893,
      "Ġcalling": 5894,
      "Ġupdates": 5895,
      "rier": 5896,
      "Ġsupposed": 5897,
      "mond": 5898,
      "Ġinstallation": 5899,
      "hand": 5900,
      "Ġcauses": 5901,
      "Ġstret": 5902,
      "alian": 5903,
      "ĠAT": 5904,
      "ĠEconom": 5905,
      "ĠSearch": 5906,
      "Ġbound": 5907,
      "Ġdiscovered": 5908,
      "Ġburn": 5909,
      "ĠWay": 5910,
      "Ġadults": 5911,
      "mes": 5912,
      "Ġgather": 5913,
      "Ġpregn": 5914,
      "Ġannounce": 5915,
      "arsh": 5916,
      "Ġconflic": 5917,
      "First": 5918,
      "gas": 5919,
      "Ġfruit": 5920,
      "secut": 5921,
      "ĠAfrican": 5922,
      "Ġimproved": 5923,
      "uts": 5924,
      "ĠEarth": 5925,
      "Or": 5926,
      "Ġemp": 5927,
      "edu": 5928,
      "Ġproposed": 5929,
      "Ġbigger": 5930,
      "ownt": 5931,
      "Ġbrands": 5932,
      "ĠProv": 5933,
      "Ġcomplic": 5934,
      "Ġreduced": 5935,
      "road": 5936,
      "ĠOil": 5937,
      "Oh": 5938,
      "ibilities": 5939,
      "Ġbask": 5940,
      "Ġmut": 5941,
      "cking": 5942,
      "Ġcharges": 5943,
      "Ġarrest": 5944,
      "Ġdollars": 5945,
      "Ġring": 5946,
      "Ġcentre": 5947,
      "itionally": 5948,
      "Ġemployee": 5949,
      "MP": 5950,
      "Ġnoted": 5951,
      "ĠHistory": 5952,
      "53": 5953,
      "ta": 5954,
      "Book": 5955,
      "Ġcultural": 5956,
      "Ġthread": 5957,
      "Ġsupported": 5958,
      "df": 5959,
      "Ġmale": 5960,
      "Ġinput": 5961,
      "ĠId": 5962,
      "Ġamb": 5963,
      "ĠLouis": 5964,
      "hetic": 5965,
      "cles": 5966,
      "hent": 5967,
      "54": 5968,
      "Ġenable": 5969,
      "aren": 5970,
      "Ġanimal": 5971,
      "ria": 5972,
      "Ġsuit": 5973,
      "Ġath": 5974,
      "ĠExt": 5975,
      "Ġpractical": 5976,
      "pected": 5977,
      "Ġaudio": 5978,
      "ĠOpt": 5979,
      "Ġbrowser": 5980,
      "Ġagent": 5981,
      "Ġsignificantly": 5982,
      "Ġreliable": 5983,
      "Ġconsequ": 5984,
      "ĠCode": 5985,
      "ato": 5986,
      "ora": 5987,
      "Ġconcerned": 5988,
      "ĠPeter": 5989,
      "ĠControl": 5990,
      "Ġtheory": 5991,
      "Ġrecovery": 5992,
      "Ġapproved": 5993,
      "Ġdiss": 5994,
      "Ġanswers": 5995,
      "ĠMo": 5996,
      "Ġmeal": 5997,
      "Â·": 5998,
      "Ġfilter": 5999,
      "Ġflight": 6000,
      "ĠSale": 6001,
      "Ġlived": 6002,
      "pass": 6003,
      "Ġsimpl": 6004,
      "Ġtag": 6005,
      "Ġlunch": 6006,
      "Ġdetermined": 6007,
      "Ġmarriage": 6008,
      "Ġdelivered": 6009,
      "ĠVideo": 6010,
      "Ġmanufacturing": 6011,
      "Ġoutput": 6012,
      "encing": 6013,
      "Ġfailed": 6014,
      "Ġeffectively": 6015,
      "Ġsettings": 6016,
      "ĠCost": 6017,
      "eper": 6018,
      "Ġcolour": 6019,
      "ĠPlus": 6020,
      "Ġadult": 6021,
      "ĠThomas": 6022,
      "Ġintended": 6023,
      "Ġpurposes": 6024,
      "Ġgreatest": 6025,
      "Ġprotein": 6026,
      "ĠSol": 6027,
      "elf": 6028,
      "Ġcommand": 6029,
      "Ġchannel": 6030,
      "ĠMuseum": 6031,
      "Ġodd": 6032,
      "ĠKeep": 6033,
      "orough": 6034,
      "Ġobl": 6035,
      "ĠAmericans": 6036,
      "Ġsoul": 6037,
      "Ġauto": 6038,
      "Ġbike": 6039,
      "ĠEnergy": 6040,
      "Ġphil": 6041,
      "oosing": 6042,
      "Ġdrugs": 6043,
      "under": 6044,
      "respond": 6045,
      "Ġcop": 6046,
      "!)": 6047,
      "Ġpun": 6048,
      "Ġtopics": 6049,
      "SC": 6050,
      "Ġjack": 6051,
      "Ġworse": 6052,
      "Ġcoord": 6053,
      "Ġfourth": 6054,
      "ossible": 6055,
      "ambling": 6056,
      "ĠCat": 6057,
      "Ġfailure": 6058,
      "ĠCentre": 6059,
      "arp": 6060,
      "Ġ2003": 6061,
      "yal": 6062,
      "hat": 6063,
      "ĠCam": 6064,
      "oga": 6065,
      "Ġcompetitive": 6066,
      "ĠVict": 6067,
      "Ġappearance": 6068,
      "Ġtechnologies": 6069,
      "Ġprocedure": 6070,
      "Ġfif": 6071,
      "Int": 6072,
      "Ġreput": 6073,
      "PM": 6074,
      "Ġmal": 6075,
      "Ġbroken": 6076,
      "hy": 6077,
      "han": 6078,
      "Ġlaunched": 6079,
      "ords": 6080,
      "inte": 6081,
      "Ġforces": 6082,
      "oted": 6083,
      "Ġappeared": 6084,
      "eries": 6085,
      "====": 6086,
      "ultural": 6087,
      "Dr": 6088,
      "Ġgoods": 6089,
      "Ġdepart": 6090,
      "Ġresource": 6091,
      "ilit": 6092,
      "Ġlights": 6093,
      "prene": 6094,
      "Ġweak": 6095,
      "Ġbringing": 6096,
      "ĠSecret": 6097,
      "Ġsad": 6098,
      "ĠLos": 6099,
      "okes": 6100,
      "Ġtrouble": 6101,
      "Ġexpertise": 6102,
      "Ġang": 6103,
      "kes": 6104,
      "Ġdoors": 6105,
      "ĠJud": 6106,
      "ĠCe": 6107,
      "Let": 6108,
      "hors": 6109,
      "ĠTem": 6110,
      "Ġchain": 6111,
      "ĠBlog": 6112,
      "52": 6113,
      "Most": 6114,
      "ican": 6115,
      "Ġweap": 6116,
      "Are": 6117,
      "PC": 6118,
      "liers": 6119,
      "Ġtast": 6120,
      "Ġhighlight": 6121,
      "rics": 6122,
      "Ġknowing": 6123,
      "Ġspons": 6124,
      "Ġexecutive": 6125,
      "Ġsurgery": 6126,
      "Ġ;": 6127,
      "Ġafternoon": 6128,
      "ĠBoth": 6129,
      "ĠBrand": 6130,
      "ML": 6131,
      "ĠWal": 6132,
      "Jan": 6133,
      "Ġli": 6134,
      "Ġyesterday": 6135,
      "ATION": 6136,
      "real": 6137,
      "erg": 6138,
      "irmed": 6139,
      "Ġben": 6140,
      "ĠCH": 6141,
      "Ġsides": 6142,
      "ĠHuman": 6143,
      "Ġworksh": 6144,
      "Ġperspective": 6145,
      "Ġarg": 6146,
      "Ġcrisis": 6147,
      "reprene": 6148,
      "dden": 6149,
      "Pub": 6150,
      "ĠDisc": 6151,
      "xi": 6152,
      "Ġdrivers": 6153,
      "oking": 6154,
      "According": 6155,
      "Ġneighborhood": 6156,
      "Ġ?": 6157,
      "Ġstanding": 6158,
      "ĠWhere": 6159,
      "anges": 6160,
      "itoring": 6161,
      "Ġprop": 6162,
      "tters": 6163,
      "Ġvary": 6164,
      "Ġoccasion": 6165,
      "Ġefficiency": 6166,
      "ĠiPhone": 6167,
      "Ġdisp": 6168,
      "Ġresearc": 6169,
      "Ġdistribution": 6170,
      "ĠJim": 6171,
      "irms": 6172,
      "Ġpremium": 6173,
      "Ð¸": 6174,
      "ĠCook": 6175,
      "Ġapparent": 6176,
      "ĠInte": 6177,
      "Ġcitizens": 6178,
      "MA": 6179,
      "ĠSqu": 6180,
      "ĠMarketing": 6181,
      "Ġdial": 6182,
      "Ġstre": 6183,
      "Like": 6184,
      "gers": 6185,
      "lla": 6186,
      "Ġ300": 6187,
      "Ġidentified": 6188,
      "Ġneck": 6189,
      "Ġcarried": 6190,
      "Ġfoods": 6191,
      "Ġdining": 6192,
      "comes": 6193,
      "abet": 6194,
      "Ġplate": 6195,
      "Ġpure": 6196,
      "ĠJoe": 6197,
      "Ġrand": 6198,
      "Ġrestaurants": 6199,
      "Ġisland": 6200,
      "Over": 6201,
      "Ġcomprehensive": 6202,
      "Fr": 6203,
      "ĠLtd": 6204,
      "Ġarrived": 6205,
      "ias": 6206,
      "ĠGal": 6207,
      "Ġcaught": 6208,
      "Ġdump": 6209,
      "away": 6210,
      "jo": 6211,
      "Ġparticipants": 6212,
      "achel": 6213,
      "Any": 6214,
      "Ġsupporting": 6215,
      "ĠLive": 6216,
      "Ġbrown": 6217,
      "ĠMike": 6218,
      "ĠNOT": 6219,
      "arry": 6220,
      "Ġexcess": 6221,
      "ef": 6222,
      "Ġscript": 6223,
      "mosp": 6224,
      "Ġeditor": 6225,
      "Ġshock": 6226,
      "Ġtea": 6227,
      "ache": 6228,
      "ĠEnd": 6229,
      "oti": 6230,
      "aid": 6231,
      "Ġsubstant": 6232,
      "Col": 6233,
      "aded": 6234,
      "ĠDigital": 6235,
      "Ġimagine": 6236,
      "Ġbutter": 6237,
      "urban": 6238,
      "Ġmonthly": 6239,
      "nel": 6240,
      "Ġvaluable": 6241,
      "Ġfolks": 6242,
      "ĠTerm": 6243,
      "Ġsan": 6244,
      "ĠAdminist": 6245,
      "ĠContact": 6246,
      "Ġsister": 6247,
      "Ġchief": 6248,
      "plate": 6249,
      "Ġdelicious": 6250,
      "Ġfly": 6251,
      "po": 6252,
      "Ġsudden": 6253,
      "Ġeducational": 6254,
      "Ġadvis": 6255,
      "Ġalcohol": 6256,
      "Ġdraft": 6257,
      "Ġassets": 6258,
      "98": 6259,
      "Ġsalt": 6260,
      "hentic": 6261,
      "ĠArts": 6262,
      "rum": 6263,
      "âĦ": 6264,
      "Ġdescription": 6265,
      "ĠMax": 6266,
      "Ġelectronic": 6267,
      "Loc": 6268,
      "Ġwheel": 6269,
      "Ġtom": 6270,
      "Ġaffected": 6271,
      "Ġnine": 6272,
      "mal": 6273,
      "Pe": 6274,
      "Post": 6275,
      "sembly": 6276,
      "Ġbelong": 6277,
      "Ġcommitment": 6278,
      "ĠHelp": 6279,
      "Ġperfectly": 6280,
      "Best": 6281,
      "51": 6282,
      "ĠSaf": 6283,
      "Ġhundreds": 6284,
      "UL": 6285,
      "Ġshoes": 6286,
      "Ġtransl": 6287,
      "azz": 6288,
      "ĠConference": 6289,
      "Ġvirtual": 6290,
      "arks": 6291,
      "ĠHD": 6292,
      "oston": 6293,
      "Ġstopped": 6294,
      "Ġorders": 6295,
      "âĢ¦.": 6296,
      "gging": 6297,
      "ĠMult": 6298,
      "unting": 6299,
      "Ġinvestors": 6300,
      "Ġtells": 6301,
      "iors": 6302,
      "Ġec": 6303,
      "Ġdance": 6304,
      "otal": 6305,
      "ters": 6306,
      "ĠMaybe": 6307,
      "Ġautomatically": 6308,
      "ĠGames": 6309,
      "Ġran": 6310,
      "Oct": 6311,
      "bi": 6312,
      "ĠRoom": 6313,
      "Ġdecades": 6314,
      "Ġwid": 6315,
      "osite": 6316,
      "luding": 6317,
      "Ġcoast": 6318,
      "Ġdatabase": 6319,
      "Rel": 6320,
      "ĠGra": 6321,
      "igr": 6322,
      "weight": 6323,
      "ĠJose": 6324,
      "Ġprofit": 6325,
      "ĠTour": 6326,
      "andemic": 6327,
      "va": 6328,
      "Ġtruck": 6329,
      "ĠKnow": 6330,
      "EE": 6331,
      "that": 6332,
      "Ġmilk": 6333,
      "cuit": 6334,
      "Ġguest": 6335,
      "ĠMov": 6336,
      "lete": 6337,
      "Ġcro": 6338,
      "aning": 6339,
      "Ġcutting": 6340,
      "west": 6341,
      "Ġspeaking": 6342,
      "Ġtwice": 6343,
      "illy": 6344,
      "76": 6345,
      "Sub": 6346,
      "Ġtables": 6347,
      "Ġconv": 6348,
      "inter": 6349,
      "Ġspeech": 6350,
      "Aut": 6351,
      "Ġbelief": 6352,
      "ĠChris": 6353,
      "Ġhousehold": 6354,
      "Ġrandom": 6355,
      "Also": 6356,
      "ĠUl": 6357,
      "ĠAward": 6358,
      "eline": 6359,
      "ĠTravel": 6360,
      "alled": 6361,
      "Ġregistered": 6362,
      "Ġpurchased": 6363,
      "erves": 6364,
      "Ġmanufacturer": 6365,
      "anged": 6366,
      "acks": 6367,
      "ĠSpring": 6368,
      "osoph": 6369,
      "Ġcovers": 6370,
      "Ġcarbon": 6371,
      "aturing": 6372,
      "Ġends": 6373,
      "Ġrestrict": 6374,
      "Ġmanual": 6375,
      "Ġprotected": 6376,
      "Ġturns": 6377,
      "Ġtut": 6378,
      "Ġinspired": 6379,
      "Ġtickets": 6380,
      "ĠBit": 6381,
      "ĠJapanese": 6382,
      "ĠApplic": 6383,
      "Other": 6384,
      "ighter": 6385,
      "ĠRev": 6386,
      "uated": 6387,
      "Ġconstantly": 6388,
      "Ġrelatively": 6389,
      "Ġtreated": 6390,
      "ĠStep": 6391,
      "Ġid": 6392,
      "Ġcooking": 6393,
      "elcome": 6394,
      "Ġaffili": 6395,
      "Ġfulf": 6396,
      "Ġdiam": 6397,
      "âĢĿ,": 6398,
      "GB": 6399,
      "ĠNext": 6400,
      "Ġchicken": 6401,
      "ĠAsia": 6402,
      "Ġsevere": 6403,
      "Ġmeat": 6404,
      "Ġregul": 6405,
      "Ġremaining": 6406,
      "Ġfle": 6407,
      "Ġexplained": 6408,
      "Ġbread": 6409,
      "Ġimprovement": 6410,
      "Ġmatters": 6411,
      "Ġfort": 6412,
      "aped": 6413,
      "covery": 6414,
      "igration": 6415,
      "Ġliber": 6416,
      "ĠSecond": 6417,
      "Ġbegins": 6418,
      "ĠEp": 6419,
      "Ġchosen": 6420,
      "Ġtrend": 6421,
      "Ġlabel": 6422,
      "Ġven": 6423,
      "AB": 6424,
      "Ġforced": 6425,
      "Ġmere": 6426,
      "rid": 6427,
      "Ġpharm": 6428,
      "Ġkeeps": 6429,
      "Ġfrequently": 6430,
      "Ġmassive": 6431,
      "ĠLibrary": 6432,
      "Reg": 6433,
      "omy": 6434,
      "irty": 6435,
      "arian": 6436,
      "Ġtypical": 6437,
      "http": 6438,
      "upper": 6439,
      "Ġlicense": 6440,
      "Ġcycle": 6441,
      "ĠWatch": 6442,
      "Ġvit": 6443,
      "Ġnom": 6444,
      "ĠWild": 6445,
      "ĠTru": 6446,
      "ĠChildren": 6447,
      "ĠJohnson": 6448,
      "Ġconfirm": 6449,
      "Ġteen": 6450,
      "âĦ¢": 6451,
      "ĠAccount": 6452,
      "ĠChief": 6453,
      "ĠBed": 6454,
      "ĠRussian": 6455,
      "ĠMP": 6456,
      "atre": 6457,
      "ĠLook": 6458,
      "Ġpapers": 6459,
      "Ġ36": 6460,
      "erts": 6461,
      "hus": 6462,
      "Ġmissed": 6463,
      "Ġsole": 6464,
      "Tube": 6465,
      "Another": 6466,
      "ĠRussia": 6467,
      "Ġcreation": 6468,
      "Ġfreedom": 6469,
      "bur": 6470,
      "Ġguarantee": 6471,
      "aniel": 6472,
      "Ġincredible": 6473,
      "Ġbuildings": 6474,
      "ĠPrem": 6475,
      "Ġinfrastructure": 6476,
      "lights": 6477,
      "missions": 6478,
      "Ġwearing": 6479,
      "Ġtelling": 6480,
      "Ġemphas": 6481,
      "Ġhero": 6482,
      "Ġcoal": 6483,
      "Ġagreed": 6484,
      "Ġgro": 6485,
      "ĠCir": 6486,
      "ĠBow": 6487,
      "DS": 6488,
      "Ġinnovative": 6489,
      "Ġcircumstances": 6490,
      "Ġorganic": 6491,
      "Go": 6492,
      "Ġprocedures": 6493,
      "Ġaccepted": 6494,
      "Ġdisappoint": 6495,
      "Great": 6496,
      "Ġregularly": 6497,
      "vy": 6498,
      "ĠHard": 6499,
      "Ġjew": 6500,
      "Ġlit": 6501,
      "Ġbirthday": 6502,
      "ĠGirl": 6503,
      "Ġassessment": 6504,
      "Ġaccurate": 6505,
      "Ġdefend": 6506,
      "Ġinterior": 6507,
      "vi": 6508,
      "endar": 6509,
      "Ġadministr": 6510,
      "ĠBob": 6511,
      "Ġroute": 6512,
      "Ġillustr": 6513,
      "Ġacid": 6514,
      "Ġequal": 6515,
      "Ġdish": 6516,
      "ĠĠ": 6517,
      "Ġmotion": 6518,
      "Ġking": 6519,
      "icing": 6520,
      "Ġbless": 6521,
      "Aug": 6522,
      "Ġtail": 6523,
      "Ġportion": 6524,
      "cling": 6525,
      "uzz": 6526,
      "Ġmessages": 6527,
      "Ġwitness": 6528,
      "ĠDoes": 6529,
      "Ġepisode": 6530,
      "ĠTable": 6531,
      "Ġinn": 6532,
      "ployment": 6533,
      "Ġcloser": 6534,
      "Ġpayments": 6535,
      "Ġinstructions": 6536,
      "Ġapartment": 6537,
      "ĠKey": 6538,
      "ĠAngeles": 6539,
      "Ġconvenient": 6540,
      "Ġsignal": 6541,
      "uclear": 6542,
      "ĠWhether": 6543,
      "ecutive": 6544,
      "Ġpositions": 6545,
      "greg": 6546,
      "apes": 6547,
      "Ġsymbol": 6548,
      "Ġsyn": 6549,
      "Ġissued": 6550,
      "Ġvisiting": 6551,
      "ĠHaw": 6552,
      "Ġwww": 6553,
      "Ġtasks": 6554,
      "Ġemployment": 6555,
      "uine": 6556,
      "Ġ48": 6557,
      "Ġmel": 6558,
      "Ġheight": 6559,
      "REE": 6560,
      "Ġcandidates": 6561,
      "host": 6562,
      "cknow": 6563,
      "Ġplanned": 6564,
      "umps": 6565,
      "Ġcommission": 6566,
      "Ġjudge": 6567,
      "Ġjoy": 6568,
      "olved": 6569,
      "Ġperman": 6570,
      "hew": 6571,
      "Ġreceiving": 6572,
      "Ġlayer": 6573,
      "Ġinvolve": 6574,
      "Top": 6575,
      "Ġprivacy": 6576,
      "'.": 6577,
      "Ġusual": 6578,
      "berry": 6579,
      "wing": 6580,
      "Ġexternal": 6581,
      "ĠAnal": 6582,
      "Ġrevealed": 6583,
      "Ġboat": 6584,
      "Free": 6585,
      "ospit": 6586,
      "CO": 6587,
      "Ġliked": 6588,
      "Ġsac": 6589,
      "Ġbasket": 6590,
      "Ġofficer": 6591,
      "Ġdu": 6592,
      "ansion": 6593,
      "Ġentirely": 6594,
      "owing": 6595,
      "ĠFair": 6596,
      "Per": 6597,
      "Ġdefined": 6598,
      "elly": 6599,
      "Ġboys": 6600,
      "Ġreligious": 6601,
      "Ġfollows": 6602,
      "ĠCreat": 6603,
      "ĠWalk": 6604,
      "Ġphase": 6605,
      "Ġretire": 6606,
      "ĠQuest": 6607,
      "Ġfacts": 6608,
      "Ġhistorical": 6609,
      "ĠSar": 6610,
      "car": 6611,
      "reate": 6612,
      "ĠYOU": 6613,
      "ĠPass": 6614,
      "onym": 6615,
      "dated": 6616,
      "ĠContin": 6617,
      "ensity": 6618,
      "Ġnone": 6619,
      "Ġvoc": 6620,
      "Ġcontrast": 6621,
      "ban": 6622,
      "Ġtelevision": 6623,
      "Since": 6624,
      "Ġhouses": 6625,
      "ĠOk": 6626,
      "Ġelig": 6627,
      "ĠBox": 6628,
      "Ġdeposit": 6629,
      "ĠPDF": 6630,
      "Ġsurf": 6631,
      "ĠPenn": 6632,
      "ĠJeff": 6633,
      "Ġrough": 6634,
      "Press": 6635,
      "ĠCross": 6636,
      "Ġnoticed": 6637,
      "ĠFinancial": 6638,
      "ĠMachine": 6639,
      "Ġtrig": 6640,
      "Ġobvious": 6641,
      "Ġatmosp": 6642,
      "Ġviolence": 6643,
      "Ġreasonable": 6644,
      "Ġwealth": 6645,
      "olve": 6646,
      "ĠType": 6647,
      "Ġscientific": 6648,
      "Ġdangerous": 6649,
      "ework": 6650,
      "Ġpicked": 6651,
      "ĠFederal": 6652,
      "Ġsilver": 6653,
      "ĠCharl": 6654,
      "eration": 6655,
      "ĠThose": 6656,
      "Ã¡": 6657,
      "Ġveter": 6658,
      "Ġexpression": 6659,
      "AY": 6660,
      "ĠCath": 6661,
      "ĠBal": 6662,
      "stone": 6663,
      "ĠHor": 6664,
      "ĠColl": 6665,
      "igure": 6666,
      "Ġ08": 6667,
      "Ġdegrees": 6668,
      "Ġ{": 6669,
      "Ġflowers": 6670,
      "ERS": 6671,
      "Ġsurprise": 6672,
      "Ġfro": 6673,
      "Ġproceed": 6674,
      "ĠMobile": 6675,
      "Ġunf": 6676,
      "ĠMartin": 6677,
      "Ġrenew": 6678,
      "asts": 6679,
      "ĠAssist": 6680,
      "Ġrating": 6681,
      "Ġhappening": 6682,
      "ĠSP": 6683,
      "Ġcounty": 6684,
      "pon": 6685,
      "Ġwarrant": 6686,
      "luded": 6687,
      "Ġconcrete": 6688,
      "Ġgrown": 6689,
      "Tra": 6690,
      "Ġchocolate": 6691,
      "ĠCanadian": 6692,
      "Ġconver": 6693,
      "Ġparticipate": 6694,
      "RI": 6695,
      "Ġemotional": 6696,
      "liance": 6697,
      "Ġdistinct": 6698,
      "aper": 6699,
      "Ġcompr": 6700,
      "Ġtro": 6701,
      "Ġworldwide": 6702,
      "ĠAcademy": 6703,
      "Ġhire": 6704,
      "orable": 6705,
      "Ġpresentation": 6706,
      "ĠAnother": 6707,
      "Ġphotograph": 6708,
      "ĠMur": 6709,
      "Ġforest": 6710,
      "pes": 6711,
      "Ġbear": 6712,
      "',": 6713,
      "rick": 6714,
      "ĠMexico": 6715,
      "Ġcorrespond": 6716,
      "izer": 6717,
      "ĠMid": 6718,
      "icial": 6719,
      "ĠPoint": 6720,
      "ĠMS": 6721,
      "ĠBefore": 6722,
      "arly": 6723,
      "ĠâĨ": 6724,
      "ĠSteel": 6725,
      "Ġloves": 6726,
      "Ġmainly": 6727,
      "Ġcheese": 6728,
      "Ġextended": 6729,
      "arrow": 6730,
      "ĠKn": 6731,
      "ĠCert": 6732,
      "ĠRight": 6733,
      "Ġinstitutions": 6734,
      "ĠMiddle": 6735,
      "Ġreward": 6736,
      "Ġfilms": 6737,
      "ĠCond": 6738,
      "Ġagencies": 6739,
      "Ġdifferences": 6740,
      "Ġregistration": 6741,
      "othe": 6742,
      "Many": 6743,
      "ĠLee": 6744,
      "Ġinvestigation": 6745,
      "ĠAustralian": 6746,
      "ev": 6747,
      "ĠAC": 6748,
      "Ġvital": 6749,
      "Ġprompt": 6750,
      "pret": 6751,
      "ĠTrust": 6752,
      "ĠNon": 6753,
      "Ġupper": 6754,
      "Ġdomain": 6755,
      "ĠJones": 6756,
      "alse": 6757,
      "Ġclothes": 6758,
      "!!!!": 6759,
      "Ġcute": 6760,
      "Ġincl": 6761,
      "Ġsick": 6762,
      "odd": 6763,
      "ĠTherefore": 6764,
      "ĠPolice": 6765,
      "ba": 6766,
      "Ġsituations": 6767,
      "Ġindeed": 6768,
      "Ġliquid": 6769,
      "Ġtaught": 6770,
      "ras": 6771,
      "clusion": 6772,
      "Americ": 6773,
      "Ġcompens": 6774,
      "Ġrental": 6775,
      "Ġhorse": 6776,
      "Ġwalls": 6777,
      "she": 6778,
      "ints": 6779,
      "orders": 6780,
      "Ġhealthcare": 6781,
      "Ġchallenging": 6782,
      "Ġtechnique": 6783,
      "ĠFarm": 6784,
      "ĠFollow": 6785,
      "Ġcrucial": 6786,
      "Ġrow": 6787,
      "Ġicon": 6788,
      "Ġnormally": 6789,
      "Ġdelight": 6790,
      "nam": 6791,
      "Ġlosing": 6792,
      "plete": 6793,
      "Ġoutstanding": 6794,
      "ĠStock": 6795,
      "Ġ01": 6796,
      "Ġsheet": 6797,
      "ĠHospital": 6798,
      "ĠLow": 6799,
      "Ġsupplies": 6800,
      "VD": 6801,
      "Ġunlike": 6802,
      "Ġregional": 6803,
      "tw": 6804,
      "Ġcritic": 6805,
      "Ġrecorded": 6806,
      "ribe": 6807,
      "Ġmoments": 6808,
      "icit": 6809,
      "ĠAR": 6810,
      "gend": 6811,
      "EST": 6812,
      "ĠDate": 6813,
      "Ġcharged": 6814,
      "inch": 6815,
      "igned": 6816,
      "Ġresolution": 6817,
      "Ġmedicine": 6818,
      "Ġspa": 6819,
      "ĠBlo": 6820,
      "ayer": 6821,
      "ĠMic": 6822,
      "Ġfunny": 6823,
      "ĠVirginia": 6824,
      "ingly": 6825,
      "Ġspr": 6826,
      "Ġ2002": 6827,
      "itution": 6828,
      "Ġcrime": 6829,
      "Gu": 6830,
      "ĠHen": 6831,
      "Ġpandemic": 6832,
      "anger": 6833,
      "ĠGarden": 6834,
      "ĠDef": 6835,
      "Ġsuggested": 6836,
      "Ġdomestic": 6837,
      "ĠEU": 6838,
      "ĠParis": 6839,
      "Ġlikes": 6840,
      "Ġteeth": 6841,
      "bles": 6842,
      "97": 6843,
      "Ġroutine": 6844,
      "Feb": 6845,
      "Ġplatforms": 6846,
      "Ġedition": 6847,
      "Ġreturns": 6848,
      "Ġpatterns": 6849,
      "Ġsearching": 6850,
      "Ġinteg": 6851,
      "Ġentertainment": 6852,
      "Ġholds": 6853,
      "Ġmur": 6854,
      "Ġsexual": 6855,
      "ĠChair": 6856,
      "Ġfacing": 6857,
      "Ġadvoc": 6858,
      "Ġinvent": 6859,
      "Ġworst": 6860,
      "ĠInstead": 6861,
      "ĠMcC": 6862,
      "Ġoperate": 6863,
      "Ġhook": 6864,
      "Ġterror": 6865,
      "Ġsupports": 6866,
      "........": 6867,
      "Ġprepar": 6868,
      "ĠIde": 6869,
      "AA": 6870,
      "Ġ38": 6871,
      "ĠYoung": 6872,
      "ĠAD": 6873,
      "Ġcrew": 6874,
      "esides": 6875,
      "Ġcandidate": 6876,
      "Ġauthority": 6877,
      "ĠBall": 6878,
      "Ġsolar": 6879,
      "Ġowned": 6880,
      "Ġshel": 6881,
      "Ġprison": 6882,
      "Ġabuse": 6883,
      "oster": 6884,
      "Ġped": 6885,
      "Ġcarefully": 6886,
      "ĠTri": 6887,
      "iki": 6888,
      "ĠSales": 6889,
      "ĠPac": 6890,
      "Ġcolumn": 6891,
      "stract": 6892,
      "ĠCarolina": 6893,
      "agon": 6894,
      "ĠKen": 6895,
      "Good": 6896,
      "ĠHope": 6897,
      "Ġrisks": 6898,
      "rible": 6899,
      "Ġshower": 6900,
      "Ġcapable": 6901,
      "ĠArab": 6902,
      "Ġrear": 6903,
      "ĠLittle": 6904,
      "Ġskill": 6905,
      "Ġreplacement": 6906,
      "ĠCBD": 6907,
      "Ġexclusive": 6908,
      "Ġconducted": 6909,
      "erman": 6910,
      "Ġtalent": 6911,
      "Ġkm": 6912,
      "Ġidentity": 6913,
      "Ġnearby": 6914,
      "Ġdelay": 6915,
      "Ġcake": 6916,
      "Ġcrushing": 6917,
      "from": 6918,
      "ificate": 6919,
      "Sm": 6920,
      "Ġcampus": 6921,
      "Ġturning": 6922,
      "Ġexpectations": 6923,
      "Ġfairly": 6924,
      "ĠNight": 6925,
      "folio": 6926,
      "earing": 6927,
      "Ġcrypt": 6928,
      "Ġscholars": 6929,
      "ĠTit": 6930,
      "Ġacknow": 6931,
      "ĠGeorg": 6932,
      "ran": 6933,
      "formance": 6934,
      "rat": 6935,
      "ĠPlace": 6936,
      "ĠArea": 6937,
      "Ġ2001": 6938,
      "Ġpossibility": 6939,
      "rooms": 6940,
      "CD": 6941,
      "ĠCa": 6942,
      "----------------": 6943,
      "lymp": 6944,
      "ĠProper": 6945,
      "Ġincreases": 6946,
      "ĠItalian": 6947,
      "ailability": 6948,
      "Click": 6949,
      "intage": 6950,
      "Ġpoker": 6951,
      "ĠNumber": 6952,
      "astern": 6953,
      "Ġinches": 6954,
      "ĠIsl": 6955,
      "ĠUsing": 6956,
      "Ġmini": 6957,
      "hem": 6958,
      "Ġindex": 6959,
      "Ġbanks": 6960,
      "idays": 6961,
      "ĠTraining": 6962,
      "Ġast": 6963,
      "ĠFurther": 6964,
      "orgeous": 6965,
      "Ġlaugh": 6966,
      "300": 6967,
      "oria": 6968,
      "ĠInstagram": 6969,
      "Ġdur": 6970,
      "Ġsuccessfully": 6971,
      "Ġtack": 6972,
      "ansas": 6973,
      "Ġdepth": 6974,
      "Co": 6975,
      "Ġpublish": 6976,
      "ĠBoston": 6977,
      "Ġleague": 6978,
      "Ġfo": 6979,
      "Ġhate": 6980,
      "Ġguard": 6981,
      "ĠExam": 6982,
      "Ġsurrounding": 6983,
      "ether": 6984,
      "Sp": 6985,
      "oral": 6986,
      "Ġsizes": 6987,
      "ĠPot": 6988,
      "Ġtur": 6989,
      "Ġriver": 6990,
      "cers": 6991,
      "Ġeveryday": 6992,
      "Ġproof": 6993,
      "Ġcommittee": 6994,
      "Ġconfirmed": 6995,
      "Ġvacation": 6996,
      "Ġengage": 6997,
      "Ġrecognized": 6998,
      "ĠFun": 6999,
      "Ġdiscussed": 7000,
      "Today": 7001,
      "ĠDaily": 7002,
      "LY": 7003,
      "Once": 7004,
      "Ġparam": 7005,
      "Ġcontro": 7006,
      "ĠShop": 7007,
      "2013": 7008,
      "Ġmeetings": 7009,
      "Ġhardware": 7010,
      "Â°": 7011,
      "Ġpersonally": 7012,
      "ĠPract": 7013,
      "FC": 7014,
      "Ġmanufacturers": 7015,
      "ĠComput": 7016,
      "Car": 7017,
      "iece": 7018,
      "Ġ09": 7019,
      "ĠProducts": 7020,
      "Ġstands": 7021,
      "ĠSystems": 7022,
      "lose": 7023,
      "Ġofficers": 7024,
      "ĠHa": 7025,
      "xiety": 7026,
      "Ġtested": 7027,
      "ĠStat": 7028,
      "Ġseriously": 7029,
      "Ġconsistent": 7030,
      "Ġore": 7031,
      "Ġrecognize": 7032,
      "Ġobtained": 7033,
      "Ġtech": 7034,
      "Ġhotels": 7035,
      "ĠNig": 7036,
      "Ġherself": 7037,
      "ĠShare": 7038,
      "ĠSmall": 7039,
      "ĠFre": 7040,
      "Ġupcoming": 7041,
      "ikes": 7042,
      "rition": 7043,
      "ĠThrough": 7044,
      "Ġcrazy": 7045,
      "Ġtab": 7046,
      "ĠDu": 7047,
      "Ġprecise": 7048,
      "alle": 7049,
      "ĠIre": 7050,
      "ĠSite": 7051,
      "ĠYouTube": 7052,
      "ÑĤ": 7053,
      "Ġreporting": 7054,
      "Ġsurprised": 7055,
      "aturally": 7056,
      "TA": 7057,
      "News": 7058,
      "74": 7059,
      "Find": 7060,
      "Ġdates": 7061,
      "ĠAS": 7062,
      "page": 7063,
      "ĠSoftware": 7064,
      "Ġsessions": 7065,
      "odcast": 7066,
      "front": 7067,
      "ura": 7068,
      "utch": 7069,
      "ennis": 7070,
      "ĠEs": 7071,
      "ĠDom": 7072,
      "Ġads": 7073,
      "Ġgaming": 7074,
      "Ġease": 7075,
      "bar": 7076,
      "Ġmixed": 7077,
      "ĠInsurance": 7078,
      "sis": 7079,
      "ĠFriend": 7080,
      "Ġstim": 7081,
      "nic": 7082,
      "Ġprospect": 7083,
      "Ġargument": 7084,
      "Ġstudio": 7085,
      "%.": 7086,
      "72": 7087,
      "celer": 7088,
      "ĠSn": 7089,
      "Ġbasically": 7090,
      "grad": 7091,
      "fa": 7092,
      "ller": 7093,
      "Ġguidelines": 7094,
      "Ġtomorrow": 7095,
      "ĠSep": 7096,
      "yard": 7097,
      "ppers": 7098,
      "Ġwinner": 7099,
      "asant": 7100,
      "Ġawareness": 7101,
      "Ġgambling": 7102,
      "ĠProcess": 7103,
      "Ġlighting": 7104,
      "Ġnative": 7105,
      "Ġshooting": 7106,
      "Ġgrab": 7107,
      "urse": 7108,
      "Ġrelief": 7109,
      "ĠLearn": 7110,
      "ensed": 7111,
      "ĠUt": 7112,
      "Ġwet": 7113,
      "ĠFestival": 7114,
      "oty": 7115,
      "Ġimpressive": 7116,
      "63": 7117,
      "Ġwriters": 7118,
      "inem": 7119,
      "ĠStore": 7120,
      "Ġcompare": 7121,
      "ĠWorks": 7122,
      "Ġguidance": 7123,
      "words": 7124,
      "ument": 7125,
      "Ġvillage": 7126,
      "Ġslots": 7127,
      "ĠDC": 7128,
      "HS": 7129,
      "2012": 7130,
      "Ġmillions": 7131,
      "Ġrail": 7132,
      "Ġregulations": 7133,
      "Ġcriminal": 7134,
      "ĠMeet": 7135,
      "Ġsubmit": 7136,
      "ĠEngineering": 7137,
      "Ġgrew": 7138,
      "class": 7139,
      "Ġticket": 7140,
      "ĠCast": 7141,
      "73": 7142,
      "Ġthorough": 7143,
      "ĠRef": 7144,
      "ĠJon": 7145,
      "Ġhosting": 7146,
      "Ġgrinding": 7147,
      "Ġvictory": 7148,
      "2017": 7149,
      "Ġtank": 7150,
      "Ġimpossible": 7151,
      "Ġpil": 7152,
      "Ġgenerate": 7153,
      "ingu": 7154,
      "Ġfoundation": 7155,
      "ĠCra": 7156,
      "Ġmonitoring": 7157,
      "Ġcooper": 7158,
      "rite": 7159,
      "Ġongoing": 7160,
      "ogue": 7161,
      "ĠAri": 7162,
      "ĠCrusher": 7163,
      "build": 7164,
      "https": 7165,
      "owntown": 7166,
      "ĠWilliams": 7167,
      "ĠTool": 7168,
      "ouch": 7169,
      "Ġathlet": 7170,
      "ĠChampions": 7171,
      "ĠVan": 7172,
      "iser": 7173,
      "Ġtaxes": 7174,
      "ĠExpl": 7175,
      "Of": 7176,
      "Ġhurt": 7177,
      "Ġentr": 7178,
      "Ġadm": 7179,
      "ixture": 7180,
      "OO": 7181,
      "Ġpowder": 7182,
      "ĠEnvironment": 7183,
      "Ġ~": 7184,
      "Ġauthors": 7185,
      "Ġinnovation": 7186,
      "Ġsufficient": 7187,
      "Ġyellow": 7188,
      "Ġtransition": 7189,
      "Ġagents": 7190,
      "Share": 7191,
      "Ġwithd": 7192,
      "2014": 7193,
      "otton": 7194,
      "ĠFact": 7195,
      "Ġpill": 7196,
      "Ġdealing": 7197,
      "Art": 7198,
      "ĠCoast": 7199,
      "Ġforth": 7200,
      "des": 7201,
      "Ġtiss": 7202,
      "ĠIran": 7203,
      "Ġaccessible": 7204,
      "etime": 7205,
      "ogen": 7206,
      "Ġinterface": 7207,
      "lements": 7208,
      "Ġarms": 7209,
      "ãģ": 7210,
      "Ġlinked": 7211,
      "ati": 7212,
      "Ġspin": 7213,
      "Ġformed": 7214,
      "Med": 7215,
      "Ġcable": 7216,
      "Ġunable": 7217,
      "Ġpainting": 7218,
      "ĠExecutive": 7219,
      "zer": 7220,
      "HA": 7221,
      "Ġspaces": 7222,
      "ĠTax": 7223,
      "Ġenem": 7224,
      "Ġille": 7225,
      "Ġfeatured": 7226,
      "Ġattacks": 7227,
      "this": 7228,
      "ĠRichard": 7229,
      "John": 7230,
      "ĠPhys": 7231,
      "yers": 7232,
      "Ġextract": 7233,
      "uls": 7234,
      "ĠiP": 7235,
      "ĠDan": 7236,
      "Ġlad": 7237,
      "Ġtrail": 7238,
      "ournament": 7239,
      "ĠRoyal": 7240,
      "ĠBon": 7241,
      "ĠAff": 7242,
      "Ġrein": 7243,
      "Ġnetworks": 7244,
      "Ġlifestyle": 7245,
      "ĠSpanish": 7246,
      "Ġpartnership": 7247,
      "ĠMA": 7248,
      "Ġchoosing": 7249,
      "Ġfigures": 7250,
      "Ġprove": 7251,
      "iana": 7252,
      "Ġscheduled": 7253,
      "Ġchapter": 7254,
      "ĠFoot": 7255,
      "ĠConf": 7256,
      "Ġhall": 7257,
      "Ġimplementation": 7258,
      "Ġempt": 7259,
      "Ġshift": 7260,
      "Ġnegoti": 7261,
      "law": 7262,
      "level": 7263,
      "Ġfighting": 7264,
      "anna": 7265,
      "Ġentered": 7266,
      "Ġresearchers": 7267,
      "Ġtiny": 7268,
      "Ġletters": 7269,
      "Ġjustice": 7270,
      "Ġyounger": 7271,
      "worth": 7272,
      "ĠPhoto": 7273,
      "Ġgraduate": 7274,
      "Ġconfident": 7275,
      "Ġhoping": 7276,
      "long": 7277,
      "cons": 7278,
      "EA": 7279,
      "Ġauthentic": 7280,
      "Ġenthus": 7281,
      "Ġplanet": 7282,
      "ĠCasino": 7283,
      "Ġsin": 7284,
      "Ġattorney": 7285,
      "Dis": 7286,
      "ĠDie": 7287,
      "Ġvast": 7288,
      "Ġmand": 7289,
      "Ġintegrated": 7290,
      "ĠLin": 7291,
      "Part": 7292,
      "Ġpleased": 7293,
      "Ġwidely": 7294,
      "Ġdiverse": 7295,
      "Ġresistance": 7296,
      "ĠEnt": 7297,
      "ĠRoll": 7298,
      "Ġanyway": 7299,
      "Ġfellow": 7300,
      "Ġanticip": 7301,
      "Ġcontemporary": 7302,
      "ĠScot": 7303,
      "ĠJackson": 7304,
      "ĠDrive": 7305,
      "Ġadds": 7306,
      "athy": 7307,
      "Ġclar": 7308,
      "Ġgenuine": 7309,
      "Lear": 7310,
      "Ð½": 7311,
      "Ġreduction": 7312,
      "tle": 7313,
      "Ġcomponent": 7314,
      "Ġearned": 7315,
      "zil": 7316,
      "ĠRequ": 7317,
      "abetes": 7318,
      "Ġreform": 7319,
      "à¸": 7320,
      "Ġauthorities": 7321,
      "Ġlapt": 7322,
      "ello": 7323,
      "ĠColumb": 7324,
      "Ġexposure": 7325,
      "Ġpipe": 7326,
      "ĠFOR": 7327,
      "ĠSon": 7328,
      "ollywood": 7329,
      "isters": 7330,
      "rowse": 7331,
      "ilst": 7332,
      "ĠOR": 7333,
      "umes": 7334,
      "Ġmonitor": 7335,
      "quir": 7336,
      "itage": 7337,
      "ĠShould": 7338,
      "ĠBible": 7339,
      "forcement": 7340,
      "ĠPA": 7341,
      "Ġgolf": 7342,
      "Fi": 7343,
      "Ġfinance": 7344,
      "Ġ75": 7345,
      "Ġobjects": 7346,
      "asters": 7347,
      "Ġelev": 7348,
      "made": 7349,
      "Ġbelieved": 7350,
      "Where": 7351,
      "gged": 7352,
      "uan": 7353,
      "Ġrealized": 7354,
      "ĠProm": 7355,
      "Ġsmile": 7356,
      "Ġforum": 7357,
      "Next": 7358,
      "Ġvul": 7359,
      "85": 7360,
      "stream": 7361,
      "aints": 7362,
      "Ġclimb": 7363,
      "Ġbetting": 7364,
      "Ġstrategic": 7365,
      "Ġfacilit": 7366,
      "ĠPop": 7367,
      "rus": 7368,
      "Jo": 7369,
      "ĠOhio": 7370,
      "Ġconstant": 7371,
      "ĠMichigan": 7372,
      "ÑĢ": 7373,
      "ĠSteve": 7374,
      "ĠDog": 7375,
      "Ġleather": 7376,
      "Ġluxury": 7377,
      "ĠNote": 7378,
      "holders": 7379,
      "Ġordered": 7380,
      "Ġtrends": 7381,
      "Ġcomparison": 7382,
      "eding": 7383,
      "Ġappointment": 7384,
      "2018": 7385,
      "ĠLocal": 7386,
      "71": 7387,
      "BI": 7388,
      "Ġsight": 7389,
      "ĠForm": 7390,
      "Ġmuscle": 7391,
      "lyn": 7392,
      "Ġsubsequ": 7393,
      "urrent": 7394,
      "ĠVery": 7395,
      "Ġentreprene": 7396,
      "Ġmountain": 7397,
      "Ġserves": 7398,
      "Ġmac": 7399,
      "ainless": 7400,
      "Ġpossess": 7401,
      "ja": 7402,
      "tics": 7403,
      "Ġerr": 7404,
      "Ġ33": 7405,
      "cia": 7406,
      "Mr": 7407,
      "ĠManufact": 7408,
      "lder": 7409,
      "agues": 7410,
      "ographic": 7411,
      "âĢĺ": 7412,
      "olit": 7413,
      "Ġwest": 7414,
      "ĠRom": 7415,
      "Ġfavourite": 7416,
      "Ġdescribe": 7417,
      "Ġobviously": 7418,
      "Ġpassing": 7419,
      "eping": 7420,
      "Ġsauce": 7421,
      "ãĢ": 7422,
      "Ġstretch": 7423,
      "Ġtrick": 7424,
      "ĠOlymp": 7425,
      "Ġinformed": 7426,
      "Fe": 7427,
      "Ġimproving": 7428,
      "Ġmanaging": 7429,
      "Ġdepends": 7430,
      "Ġairport": 7431,
      "case": 7432,
      "Although": 7433,
      "isms": 7434,
      "Ġkne": 7435,
      "Ġages": 7436,
      "Ġlistening": 7437,
      "uling": 7438,
      "star": 7439,
      "ĠRose": 7440,
      "Ġfiled": 7441,
      "Ġpolitics": 7442,
      "Ġ150": 7443,
      "ĠCommunic": 7444,
      "Even": 7445,
      "61": 7446,
      "Ġdestroy": 7447,
      "Ġgear": 7448,
      "Ġmagazine": 7449,
      "Ġdefinition": 7450,
      "Ġsuc": 7451,
      "Ġatmosphere": 7452,
      "enger": 7453,
      "Ġnic": 7454,
      "ĠItaly": 7455,
      "Ġmoist": 7456,
      "Ġclosely": 7457,
      "rich": 7458,
      "Ġhang": 7459,
      "ĠPrint": 7460,
      "Ġcounsel": 7461,
      "ĠWhich": 7462,
      "Ġsuperv": 7463,
      "pack": 7464,
      "Ġ07": 7465,
      "Ġarts": 7466,
      "Ġreader": 7467,
      "ĠIreland": 7468,
      "ĠPak": 7469,
      "cular": 7470,
      "ĠFour": 7471,
      "Ġsmell": 7472,
      "Ġfeaturing": 7473,
      "Ġsoil": 7474,
      "Ġphen": 7475,
      "ulating": 7476,
      "Ġconsideration": 7477,
      "Ġinstruct": 7478,
      "Ġoriginally": 7479,
      "ĠCase": 7480,
      "erning": 7481,
      "ĠCR": 7482,
      "Ġreferred": 7483,
      "Inst": 7484,
      "Ġsavings": 7485,
      "Ġsuggests": 7486,
      "tocol": 7487,
      "Ġnoise": 7488,
      "Ġstyles": 7489,
      "Ġphr": 7490,
      "Ġfunctional": 7491,
      "Sim": 7492,
      "Ġdebate": 7493,
      "Ġinjuries": 7494,
      "Ġbottle": 7495,
      "izz": 7496,
      "Ġadventure": 7497,
      "Ġquote": 7498,
      "Ġcontest": 7499,
      "ĠMO": 7500,
      "FA": 7501,
      "ĠOrder": 7502,
      "2019": 7503,
      "cue": 7504,
      "ĠName": 7505,
      "Ġslowly": 7506,
      "Ġsomewhere": 7507,
      "ĠSU": 7508,
      "ifies": 7509,
      "ih": 7510,
      "Ġthin": 7511,
      "aylor": 7512,
      "</": 7513,
      "Ġsky": 7514,
      "ĠSilver": 7515,
      "Ġqualified": 7516,
      "Ġbowl": 7517,
      "Ġsorry": 7518,
      "89": 7519,
      "Ġcreates": 7520,
      "ĠDub": 7521,
      "Ġattached": 7522,
      "ĠTer": 7523,
      "ĠBell": 7524,
      "62": 7525,
      "Ġvend": 7526,
      "ĠVill": 7527,
      "Ġfitness": 7528,
      "resents": 7529,
      "ĠPen": 7530,
      "TV": 7531,
      "ership": 7532,
      "Ġrecy": 7533,
      "vious": 7534,
      "entle": 7535,
      "Ġinspiration": 7536,
      "Then": 7537,
      "ĠAgain": 7538,
      "ĠTech": 7539,
      "Ġflood": 7540,
      "Ġbeer": 7541,
      "ĠClin": 7542,
      "Ġfirms": 7543,
      "Ġlessons": 7544,
      "2016": 7545,
      "onto": 7546,
      "link": 7547,
      "ĠLine": 7548,
      "Ġchances": 7549,
      "Ġcollected": 7550,
      "una": 7551,
      "Review": 7552,
      "Ġ!": 7553,
      "ĠðŁĻ": 7554,
      "Ġdesigner": 7555,
      "Ġdropped": 7556,
      "Ġrecommendations": 7557,
      "Ġdecade": 7558,
      "Ġconsists": 7559,
      "Have": 7560,
      "ĠBeaut": 7561,
      "Ġimmediate": 7562,
      "Ġreaction": 7563,
      "born": 7564,
      "Ġhur": 7565,
      "Ġspoke": 7566,
      "Ġzone": 7567,
      "ĠFar": 7568,
      "aping": 7569,
      "Ġsaving": 7570,
      "ĠFL": 7571,
      "gor": 7572,
      "tes": 7573,
      "bing": 7574,
      "sters": 7575,
      "ĠAsh": 7576,
      "Ġmeals": 7577,
      "Contact": 7578,
      "ĠFed": 7579,
      "agra": 7580,
      "ĠHeart": 7581,
      "Ġabsor": 7582,
      "Ġexpenses": 7583,
      "Ġreply": 7584,
      "Ġfeelings": 7585,
      "Ġlucky": 7586,
      "oom": 7587,
      "eling": 7588,
      "Back": 7589,
      "Ġtub": 7590,
      "Ġintroduction": 7591,
      "Ġengagement": 7592,
      "ĠNeed": 7593,
      "Ġtrained": 7594,
      "unnels": 7595,
      "MC": 7596,
      "ipl": 7597,
      "iano": 7598,
      "terior": 7599,
      "ilipp": 7600,
      "ĠSanta": 7601,
      "Ġgifts": 7602,
      "uster": 7603,
      "Ġmortgage": 7604,
      "Ġflexible": 7605,
      "iverse": 7606,
      "Ġsending": 7607,
      "Ġpleasure": 7608,
      "chester": 7609,
      "Ġbodies": 7610,
      "Ġcelebrate": 7611,
      "ĠSky": 7612,
      "ĠWebsite": 7613,
      "Ġyards": 7614,
      "Ġremark": 7615,
      "Ġdefault": 7616,
      "Ġinstrument": 7617,
      "Ġincident": 7618,
      "ĠOS": 7619,
      "ĠFord": 7620,
      "Ġtalks": 7621,
      "ĠJersey": 7622,
      "Ġsustainable": 7623,
      "ĠStone": 7624,
      "quality": 7625,
      "Ġobserved": 7626,
      "ĠCredit": 7627,
      "ĠNever": 7628,
      "Ġvirus": 7629,
      "Ġprimarily": 7630,
      "ĠSouthern": 7631,
      "ĠSC": 7632,
      "ĠCab": 7633,
      "Ġ34": 7634,
      "Ġsomewhat": 7635,
      "Ġweekly": 7636,
      "isa": 7637,
      "Ġancient": 7638,
      "ĠLeg": 7639,
      "Ġhonor": 7640,
      "Ġillness": 7641,
      "whel": 7642,
      "ĠHon": 7643,
      "Ġresulting": 7644,
      "ĠFrancisco": 7645,
      "ĠSher": 7646,
      "bury": 7647,
      "Ġmoves": 7648,
      "ĠQuality": 7649,
      "Ġdiscipl": 7650,
      "aze": 7651,
      "ucky": 7652,
      "ĠSize": 7653,
      "Ġpursu": 7654,
      "Ñģ": 7655,
      "ĠEstate": 7656,
      "onna": 7657,
      "Ġstunning": 7658,
      "ĠPlant": 7659,
      "Ġcontinuing": 7660,
      "Ġborder": 7661,
      "Comm": 7662,
      "ĠAndrew": 7663,
      "pel": 7664,
      "Ġbare": 7665,
      "ĠRam": 7666,
      "Ġwalked": 7667,
      "Ġversions": 7668,
      "low": 7669,
      "ĠBang": 7670,
      "bro": 7671,
      "Ġdeck": 7672,
      "Ġresidential": 7673,
      "Ġprogramme": 7674,
      "Ġstake": 7675,
      "Ġrose": 7676,
      "gypt": 7677,
      "Ġduty": 7678,
      "Ġultimately": 7679,
      "Ġspiritual": 7680,
      "Ġpercentage": 7681,
      "esh": 7682,
      "iders": 7683,
      "EP": 7684,
      "Ġsaved": 7685,
      "Ġtall": 7686,
      "Ġfasc": 7687,
      "apore": 7688,
      "ĠSenate": 7689,
      "Ġproven": 7690,
      "amber": 7691,
      "âĢĶâĢĶ": 7692,
      "Ġrecipes": 7693,
      "ĠSpirit": 7694,
      "zing": 7695,
      "Ġcontribute": 7696,
      "Follow": 7697,
      "Ġcrack": 7698,
      "ĠDid": 7699,
      "Ġdust": 7700,
      "ĠBuilding": 7701,
      "ĠMess": 7702,
      "Ġsolve": 7703,
      "Ġsupplement": 7704,
      "Ġtip": 7705,
      "Ġlandscape": 7706,
      "Ġcos": 7707,
      "Ġscored": 7708,
      "ĠEll": 7709,
      "Ġgarage": 7710,
      "iversary": 7711,
      "Ġbreath": 7712,
      "Ġachieved": 7713,
      "ĠÎ": 7714,
      "ĠConnect": 7715,
      "Ġ400": 7716,
      "stal": 7717,
      "ĠLiving": 7718,
      "ĠSafety": 7719,
      "Ġorganized": 7720,
      "ĠPersonal": 7721,
      "Ġsingles": 7722,
      "Ġwhenever": 7723,
      "Ġmm": 7724,
      "then": 7725,
      "Ġstruggle": 7726,
      "friendly": 7727,
      "hire": 7728,
      "odge": 7729,
      "RL": 7730,
      "Ġmuseum": 7731,
      "raction": 7732,
      "''": 7733,
      "bel": 7734,
      "was": 7735,
      "da": 7736,
      "Ġgrass": 7737,
      "EG": 7738,
      "Ġreplaced": 7739,
      "RS": 7740,
      "ĠStudents": 7741,
      "Ġpreferred": 7742,
      "ventional": 7743,
      "iral": 7744,
      "Ġexperiment": 7745,
      "Ġmusical": 7746,
      "ĠThus": 7747,
      "ĠDisney": 7748,
      "raid": 7749,
      "Ġ06": 7750,
      "Ġclothing": 7751,
      "Ġshops": 7752,
      "Ġrepresents": 7753,
      "ĠMD": 7754,
      "Ġraw": 7755,
      "ĠThree": 7756,
      "Ġprinciples": 7757,
      "Ġbreast": 7758,
      "Ġchose": 7759,
      "ns": 7760,
      "Ġlegs": 7761,
      "Ġcollaboration": 7762,
      "Ġkit": 7763,
      "Ġtransportation": 7764,
      "Ġsubmitted": 7765,
      "uction": 7766,
      "86": 7767,
      "Ġhell": 7768,
      "ugs": 7769,
      "Ġpulled": 7770,
      "cific": 7771,
      "Ġshouldn": 7772,
      "Ġvisited": 7773,
      "VER": 7774,
      "Ġurban": 7775,
      "Ġtalked": 7776,
      "Ġwarn": 7777,
      "adow": 7778,
      "raq": 7779,
      "acle": 7780,
      "Ġwash": 7781,
      "Ġconflict": 7782,
      "Ġhospit": 7783,
      "Ġeleg": 7784,
      "roduction": 7785,
      "ĠColorado": 7786,
      "Ġbags": 7787,
      "Ġperforming": 7788,
      "icket": 7789,
      "Ġaccomplish": 7790,
      "Ġscheme": 7791,
      "sell": 7792,
      "Ġincredibly": 7793,
      "ĠLLC": 7794,
      "bd": 7795,
      "Ġphilosoph": 7796,
      "Ġsusp": 7797,
      "ĠEst": 7798,
      "Ġhasn": 7799,
      "ĠKim": 7800,
      "stood": 7801,
      "ĠPo": 7802,
      "!âĢĿ": 7803,
      "ĠVi": 7804,
      "cm": 7805,
      "Ġestimated": 7806,
      "xx": 7807,
      "ĠRay": 7808,
      "Ġelectrical": 7809,
      "Ġgorgeous": 7810,
      "TER": 7811,
      "Ġnarr": 7812,
      "2020": 7813,
      "ounce": 7814,
      "ĠWi": 7815,
      "Ġroot": 7816,
      "Ġenterprise": 7817,
      "acc": 7818,
      "ĠOl": 7819,
      "Ġanxiety": 7820,
      "Ġfalse": 7821,
      "Ġpin": 7822,
      "Ġyield": 7823,
      "Ġmembership": 7824,
      "Ġscan": 7825,
      "ĠCharles": 7826,
      "inking": 7827,
      "ĠGeorgia": 7828,
      "Love": 7829,
      "Ġcategories": 7830,
      "acter": 7831,
      "Ġamounts": 7832,
      "Ġintent": 7833,
      "cipal": 7834,
      "ĠBath": 7835,
      "Ġoutcomes": 7836,
      "Ġeligible": 7837,
      "Ġdestination": 7838,
      "Ġheav": 7839,
      "making": 7840,
      "parent": 7841,
      "Ġrig": 7842,
      "Ġreputation": 7843,
      "Ġdecent": 7844,
      "Ġstatements": 7845,
      "Ġinvolves": 7846,
      "Ġassume": 7847,
      "ealand": 7848,
      "Ġlogo": 7849,
      "ĠComment": 7850,
      "Ġpersons": 7851,
      "ĠTreat": 7852,
      "Ġsynt": 7853,
      "Ġcouncil": 7854,
      "Ġther": 7855,
      "ĠAutom": 7856,
      "Ġham": 7857,
      "Ġsuggestions": 7858,
      "bridge": 7859,
      "Ġcasinos": 7860,
      "Ġmatches": 7861,
      "Ġ02": 7862,
      "unes": 7863,
      "Ġproducing": 7864,
      "Sec": 7865,
      "Ġformal": 7866,
      "Ġhumans": 7867,
      "ĠConc": 7868,
      "Ġguitar": 7869,
      "Ġapproval": 7870,
      "Ġsplit": 7871,
      "ĠSmart": 7872,
      "Ġaside": 7873,
      "Ġzero": 7874,
      "Ġfishing": 7875,
      "Ġ03": 7876,
      "Ġnuclear": 7877,
      "Ġhydro": 7878,
      "Ġconcerning": 7879,
      "Ġattractive": 7880,
      "Ġessays": 7881,
      "ĠðŁĻĤ": 7882,
      "Ġdynamic": 7883,
      "Ġlegislation": 7884,
      "Ġhabit": 7885,
      "ĠTry": 7886,
      "Ġbab": 7887,
      "amental": 7888,
      "Ġindustries": 7889,
      "interest": 7890,
      "Ġ04": 7891,
      "Ġbrill": 7892,
      "Ġphotograp": 7893,
      "anguages": 7894,
      "Ġevaluation": 7895,
      "ĠMedicine": 7896,
      "Ġproposal": 7897,
      "Ġhidden": 7898,
      "ĠStory": 7899,
      "Ġforever": 7900,
      "Ġpromise": 7901,
      "Ġrecording": 7902,
      "Ã¼": 7903,
      "Ġpresents": 7904,
      "Ġsuppliers": 7905,
      "Cons": 7906,
      "Ġgod": 7907,
      "ĠDivision": 7908,
      "Ġnecessarily": 7909,
      "Ġcapture": 7910,
      "lessly": 7911,
      "xic": 7912,
      "ĠMat": 7913,
      "Ġpra": 7914,
      "rated": 7915,
      "Ġdesired": 7916,
      "neys": 7917,
      "ĠDetails": 7918,
      "Wor": 7919,
      "ounter": 7920,
      "Ġsuspect": 7921,
      "oir": 7922,
      "och": 7923,
      "ĠSometimes": 7924,
      "Ġflash": 7925,
      "Ġstaying": 7926,
      "Ġshots": 7927,
      "ĠSummer": 7928,
      "ĠBooks": 7929,
      "Ġscores": 7930,
      "Ġjun": 7931,
      "ĠPaper": 7932,
      "Ġupload": 7933,
      "Ġsuffering": 7934,
      "ĠKitchen": 7935,
      "Ġcausing": 7936,
      "ĠSEO": 7937,
      "Ġdivid": 7938,
      "ĠJustice": 7939,
      "Ġextent": 7940,
      "ogether": 7941,
      "person": 7942,
      "ĠMir": 7943,
      "Ġvulner": 7944,
      "Ġcommonly": 7945,
      "Ġroles": 7946,
      "ouston": 7947,
      "ĠSpace": 7948,
      "ĠArmy": 7949,
      "Ġchannels": 7950,
      "ĠSelect": 7951,
      "Ġhits": 7952,
      "Ġreact": 7953,
      "site": 7954,
      "ĠPS": 7955,
      "iami": 7956,
      "ĠCN": 7957,
      "ĠCorporation": 7958,
      "AND": 7959,
      "Ġpounds": 7960,
      "Ġposting": 7961,
      "Ġstuck": 7962,
      "Ġexpressed": 7963,
      "Ġpotentially": 7964,
      "Ġvent": 7965,
      "ĠForum": 7966,
      "Who": 7967,
      "Ġinteract": 7968,
      "Ġliterature": 7969,
      "Ġmerch": 7970,
      "Ġ39": 7971,
      "Ġconsent": 7972,
      "ĠMuslim": 7973,
      "Ġexception": 7974,
      "Ġbell": 7975,
      "2015": 7976,
      "Ġinterpret": 7977,
      "Ġportfolio": 7978,
      "Ġpreparation": 7979,
      "Ġ05": 7980,
      "ĠProdu": 7981,
      "ĠCou": 7982,
      "Ġopposite": 7983,
      "amps": 7984,
      "ĠKingdom": 7985,
      "ĠSat": 7986,
      "Ġnarrow": 7987,
      "ccer": 7988,
      "Ġregions": 7989,
      "Search": 7990,
      "iti": 7991,
      "liament": 7992,
      "igate": 7993,
      "Ġanymore": 7994,
      "aine": 7995,
      "Ġexplains": 7996,
      "bell": 7997,
      "adium": 7998,
      "rage": 7999,
      "Ġbridge": 8000,
      "Ġbench": 8001,
      "Ġyard": 8002,
      "ĠArticle": 8003,
      "iking": 8004,
      "Ġmagic": 8005,
      "Ġmemories": 8006,
      "Ġundert": 8007,
      "rug": 8008,
      "ila": 8009,
      "ĠThough": 8010,
      "Ġheads": 8011,
      "ali": 8012,
      "Ġagric": 8013,
      "Ġdispos": 8014,
      "ĠCountry": 8015,
      "Ġrequirement": 8016,
      "EX": 8017,
      "phy": 8018,
      "ĠRa": 8019,
      "Ġbelieves": 8020,
      "Ġconsumption": 8021,
      "Ġbat": 8022,
      "Ġpink": 8023,
      "Ġextension": 8024,
      "ĠProfessional": 8025,
      "Ġbars": 8026,
      "Ġtor": 8027,
      "Ġeast": 8028,
      "Ġstored": 8029,
      "Ġdrawing": 8030,
      "ĠSus": 8031,
      "ĠSea": 8032,
      "ĠLED": 8033,
      "arl": 8034,
      "LS": 8035,
      "irts": 8036,
      "],": 8037,
      "Ġreducing": 8038,
      "Ġhandling": 8039,
      "Ġstreets": 8040,
      "Ġborrow": 8041,
      "ĠSenior": 8042,
      "Ġcodes": 8043,
      "Ġcontrols": 8044,
      "elry": 8045,
      "Ġsubscrib": 8046,
      "Download": 8047,
      "ĠRun": 8048,
      "Ġhat": 8049,
      "ĠRoman": 8050,
      "Ġpurchasing": 8051,
      "Ġstructures": 8052,
      "profit": 8053,
      "erate": 8054,
      "rive": 8055,
      "stein": 8056,
      "etry": 8057,
      "Ġexplan": 8058,
      "ĠHold": 8059,
      "athan": 8060,
      "arters": 8061,
      "ĠBitcoin": 8062,
      ">>": 8063,
      "During": 8064,
      "ĠJewish": 8065,
      "Ġsucceed": 8066,
      "pense": 8067,
      "Ġoven": 8068,
      "Ġregardless": 8069,
      "Ġalleged": 8070,
      "2011": 8071,
      "ĠField": 8072,
      "Ġspecialist": 8073,
      "Ġretirement": 8074,
      "ĠTurn": 8075,
      "ĠOrig": 8076,
      "Ġremoval": 8077,
      "inent": 8078,
      "agged": 8079,
      "Ġdebut": 8080,
      "ĠAsian": 8081,
      "izza": 8082,
      "Ġpriority": 8083,
      "ĠUk": 8084,
      "Ġcock": 8085,
      "owers": 8086,
      "Ġlie": 8087,
      "Ġoverwhel": 8088,
      "Ġpitch": 8089,
      "ione": 8090,
      "Ġintelligence": 8091,
      "Ġvibr": 8092,
      "ghan": 8093,
      "Ġcontrolled": 8094,
      "iments": 8095,
      "vas": 8096,
      "Ġincreasingly": 8097,
      "Rem": 8098,
      "haust": 8099,
      "Ġempty": 8100,
      "Ġpermanent": 8101,
      "Ġsamples": 8102,
      "ĠBa": 8103,
      "Pri": 8104,
      "Ġpul": 8105,
      "aron": 8106,
      "Ġmob": 8107,
      "Ġtonight": 8108,
      "lude": 8109,
      "Stud": 8110,
      "Ġattended": 8111,
      "ĠTele": 8112,
      "Ġda": 8113,
      "ĠPrin": 8114,
      "Ġrelative": 8115,
      "Ġframework": 8116,
      "Ġsoph": 8117,
      "Ġarchitecture": 8118,
      "Ġusage": 8119,
      "Ġhyper": 8120,
      "Ġequival": 8121,
      "ĠNatural": 8122,
      "Ġdevelopers": 8123,
      "UM": 8124,
      "Ġtrave": 8125,
      "ĠZealand": 8126,
      "Ġlawyer": 8127,
      "Ġmarked": 8128,
      "ĠIraq": 8129,
      "Ġcommunications": 8130,
      "anted": 8131,
      "ĠStudies": 8132,
      "ĠUr": 8133,
      "etary": 8134,
      "ĠMoney": 8135,
      "imize": 8136,
      "Ġwave": 8137,
      "ĠCru": 8138,
      "ĠHarr": 8139,
      "rog": 8140,
      "eters": 8141,
      "ellect": 8142,
      "ologist": 8143,
      "Ġcharm": 8144,
      "letter": 8145,
      "ĠFREE": 8146,
      "96": 8147,
      "ĠHim": 8148,
      "Ġenjoying": 8149,
      "ĠSS": 8150,
      "Ġincorpor": 8151,
      "roller": 8152,
      "anes": 8153,
      "Ġcertified": 8154,
      "nda": 8155,
      "theless": 8156,
      "Ġutilize": 8157,
      "Ġamend": 8158,
      "ĠJac": 8159,
      "ĠCatholic": 8160,
      "ĠSecretary": 8161,
      "Ġdirected": 8162,
      "brid": 8163,
      "annel": 8164,
      "Ġsurprising": 8165,
      "Ġknock": 8166,
      "lers": 8167,
      "Ġexpansion": 8168,
      "Ġjaw": 8169,
      "phones": 8170,
      "Ġoffices": 8171,
      "ĠLevel": 8172,
      "Ġlimits": 8173,
      "ĠFA": 8174,
      "Ġhistoric": 8175,
      "anned": 8176,
      "Ġoutcome": 8177,
      "inois": 8178,
      "Ġdoctors": 8179,
      "zona": 8180,
      "post": 8181,
      "Ġafraid": 8182,
      "inery": 8183,
      "Ġseed": 8184,
      "Ġma": 8185,
      "lections": 8186,
      "Ġsoci": 8187,
      "Ġinsight": 8188,
      "Ġprogramming": 8189,
      "Ġfaculty": 8190,
      "Ġchampions": 8191,
      "issions": 8192,
      "ĠLearning": 8193,
      "Ġseats": 8194,
      "Ġforecast": 8195,
      "itis": 8196,
      "Ġengaged": 8197,
      "Ġconnections": 8198,
      "Ġlisting": 8199,
      "Related": 8200,
      "Ġdrinking": 8201,
      "essel": 8202,
      "Ġtill": 8203,
      "inton": 8204,
      "Ġcapabilities": 8205,
      "ĠDaniel": 8206,
      "ĠLiber": 8207,
      "ials": 8208,
      "enny": 8209,
      "ĠReply": 8210,
      "oured": 8211,
      "ĠLabor": 8212,
      "High": 8213,
      "ĠLi": 8214,
      "Ġratio": 8215,
      "ĠAuto": 8216,
      "ardens": 8217,
      "Ġstorm": 8218,
      "ĠResources": 8219,
      "ĠCP": 8220,
      "Ġpace": 8221,
      "bration": 8222,
      "Ġsections": 8223,
      "TR": 8224,
      "ashed": 8225,
      "Ġadvantages": 8226,
      "Ġinfl": 8227,
      "ĠRights": 8228,
      "Ġdiscl": 8229,
      "Ġflour": 8230,
      "onder": 8231,
      "Ġinch": 8232,
      "Ġrice": 8233,
      "ĠYet": 8234,
      "ĠAvenue": 8235,
      "Will": 8236,
      "Ġcriteria": 8237,
      "Ġinner": 8238,
      "Ġplot": 8239,
      "umer": 8240,
      "ĠCry": 8241,
      "Ġscr": 8242,
      "Ġmanagers": 8243,
      "Ġequipped": 8244,
      "800": 8245,
      "Ġflavor": 8246,
      "400": 8247,
      "teen": 8248,
      "Ġalt": 8249,
      "CS": 8250,
      "Ġwra": 8251,
      "Ġsubjects": 8252,
      "Ġlets": 8253,
      "ĠPacific": 8254,
      "atell": 8255,
      "ĠJava": 8256,
      "proof": 8257,
      "Ġfaces": 8258,
      "mo": 8259,
      "Ġclaimed": 8260,
      "Ġreligion": 8261,
      "ĠCro": 8262,
      "nce": 8263,
      "uminum": 8264,
      "Ġcareful": 8265,
      "Ġpit": 8266,
      "ington": 8267,
      "Ġarrive": 8268,
      "adel": 8269,
      "Ġhole": 8270,
      "wan": 8271,
      "Ġfinds": 8272,
      "ĠPrime": 8273,
      "foot": 8274,
      "ĠCapital": 8275,
      "Reply": 8276,
      "inf": 8277,
      "Ġ55": 8278,
      "Ġgenerated": 8279,
      "ĠProfessor": 8280,
      "abeth": 8281,
      "ampion": 8282,
      "Ġtreatments": 8283,
      "uma": 8284,
      "ĠMountain": 8285,
      "url": 8286,
      "ĠCurrent": 8287,
      "Ġtracks": 8288,
      "Ġmole": 8289,
      "Ġpic": 8290,
      "ĠStudy": 8291,
      "wered": 8292,
      "Ġultimate": 8293,
      "ĠFall": 8294,
      "riter": 8295,
      "dis": 8296,
      "Ġera": 8297,
      "ĠIss": 8298,
      "inson": 8299,
      "iac": 8300,
      "Ġwatched": 8301,
      "%,": 8302,
      "ĠExp": 8303,
      "ĠDown": 8304,
      "Ġdriven": 8305,
      "Ġ1999": 8306,
      "Ġenables": 8307,
      "Ġ37": 8308,
      "ĠSav": 8309,
      "Ġblocks": 8310,
      "Ġdad": 8311,
      "Ġphones": 8312,
      "Ġcharacteristics": 8313,
      "Ġrecon": 8314,
      "ĠStill": 8315,
      "Ġalongside": 8316,
      "Ġsuperior": 8317,
      "âĤ¬": 8318,
      "Ġforgot": 8319,
      "ĠAirport": 8320,
      "print": 8321,
      "ulator": 8322,
      "leep": 8323,
      "Ġmile": 8324,
      "Ġol": 8325,
      "fall": 8326,
      "Ġwithdraw": 8327,
      "racy": 8328,
      "Ġeverywhere": 8329,
      "Ġwins": 8330,
      "Ġstrange": 8331,
      "ordan": 8332,
      "Ġavailability": 8333,
      "onymous": 8334,
      "ĠNFL": 8335,
      "ĠFlo": 8336,
      "Ġconscious": 8337,
      "ĠAdministration": 8338,
      "Ġstable": 8339,
      "lee": 8340,
      "char": 8341,
      "Ġtum": 8342,
      "ĠNorthern": 8343,
      "Ġentit": 8344,
      "Ġblank": 8345,
      "Ġchecking": 8346,
      "Ġacts": 8347,
      "ĠGM": 8348,
      "nell": 8349,
      "Ġunw": 8350,
      "Ġnaturally": 8351,
      "acher": 8352,
      "utter": 8353,
      "ributes": 8354,
      "Ġdivision": 8355,
      "ureau": 8356,
      "Whe": 8357,
      "Ġobjective": 8358,
      "gorith": 8359,
      "Ġaggress": 8360,
      "ATE": 8361,
      "Ġfactory": 8362,
      "Ġacting": 8363,
      "Ġaccord": 8364,
      "iffe": 8365,
      "Ġinfection": 8366,
      "Ġinstant": 8367,
      "Ġ00": 8368,
      "ĠMah": 8369,
      "ĠSection": 8370,
      "inds": 8371,
      "ĠWH": 8372,
      "ĠLA": 8373,
      "ĠRepublican": 8374,
      "ĠSH": 8375,
      "uing": 8376,
      "ÃŃ": 8377,
      "Ġmg": 8378,
      "ĠDa": 8379,
      "epend": 8380,
      "ĠBrazil": 8381,
      "ĠâĨĴ": 8382,
      "Ġbunch": 8383,
      "Ġliterally": 8384,
      "ãĥ": 8385,
      "Ġrecover": 8386,
      "inity": 8387,
      "ĠRod": 8388,
      "ĠFac": 8389,
      "ulum": 8390,
      "Ġmerely": 8391,
      "Ġinvited": 8392,
      "Ġacceler": 8393,
      "Ġphotography": 8394,
      "Ġtitles": 8395,
      "Bec": 8396,
      "Ġcommunicate": 8397,
      "ĠOwn": 8398,
      "Ġboxes": 8399,
      "cs": 8400,
      "Ġlists": 8401,
      "Ġsuf": 8402,
      "alo": 8403,
      "Ġdreams": 8404,
      "ĠCustomer": 8405,
      "ĠAnalysis": 8406,
      "Ġrecognition": 8407,
      "________________": 8408,
      "Ġcompliance": 8409,
      "Ġweren": 8410,
      "Ġeggs": 8411,
      "Ġnewly": 8412,
      "Ġcarrying": 8413,
      "illion": 8414,
      "Ġsen": 8415,
      "Ġwondering": 8416,
      "ĠEgypt": 8417,
      "Ġ..": 8418,
      "ĠKent": 8419,
      "Ġcomplicated": 8420,
      "Ġstrict": 8421,
      "ĠDI": 8422,
      "ilton": 8423,
      "Ġloving": 8424,
      "Ġtransaction": 8425,
      "ĠAction": 8426,
      "Ġupgrade": 8427,
      "aka": 8428,
      "avirus": 8429,
      "ruption": 8430,
      "Ġrepeated": 8431,
      "Ġcompat": 8432,
      "iot": 8433,
      "Ġoccurred": 8434,
      "Ġrising": 8435,
      "June": 8436,
      "ĠRen": 8437,
      "ĠBoy": 8438,
      "ormal": 8439,
      "ĠRyan": 8440,
      "Ġgender": 8441,
      "ĠGovern": 8442,
      "Ã³": 8443,
      "Ġbroke": 8444,
      "ĠDVD": 8445,
      "Ġhopes": 8446,
      "ĠKids": 8447,
      "Ġjoining": 8448,
      "Check": 8449,
      "asting": 8450,
      "olis": 8451,
      "ĠHas": 8452,
      "Ġprinted": 8453,
      "Ġdental": 8454,
      "Ġnursing": 8455,
      "Ġdiseases": 8456,
      "Ġtradition": 8457,
      "amsung": 8458,
      "ĠEvent": 8459,
      "ailing": 8460,
      "Ġillegal": 8461,
      "Ġstring": 8462,
      "Ġinvolving": 8463,
      "oup": 8464,
      "Ġwireless": 8465,
      "olid": 8466,
      "Ġbuyers": 8467,
      "Ġexistence": 8468,
      "Ġisol": 8469,
      "ritten": 8470,
      "Ġapproaches": 8471,
      "Ġbroadcast": 8472,
      "Ġsensitive": 8473,
      "Ġlargely": 8474,
      "ĠStudent": 8475,
      "Ġpricing": 8476,
      "ĠModel": 8477,
      "Ġconserv": 8478,
      "March": 8479,
      "ĠMaterial": 8480,
      "Ġacquire": 8481,
      "quis": 8482,
      "Ġalive": 8483,
      "igent": 8484,
      "Gener": 8485,
      "American": 8486,
      "Ġapplying": 8487,
      "Ġeverybody": 8488,
      "Ġreject": 8489,
      "Ġquotes": 8490,
      "ĠPsych": 8491,
      "inals": 8492,
      "Ġfindings": 8493,
      "ĠPrivacy": 8494,
      "Ġpersonality": 8495,
      "ifer": 8496,
      "ĠConsult": 8497,
      "Ġlies": 8498,
      "Ġ42": 8499,
      "gent": 8500,
      "Ġrequests": 8501,
      "Ġtired": 8502,
      "Ġcalendar": 8503,
      "Ġaccessories": 8504,
      "ĠSuch": 8505,
      "Ġbreaking": 8506,
      "run": 8507,
      "bits": 8508,
      "Ġminimal": 8509,
      "ĠTips": 8510,
      "Ġneighb": 8511,
      "Ġhealing": 8512,
      "Step": 8513,
      "ĠUSB": 8514,
      "Ġheating": 8515,
      "Ġnights": 8516,
      "ylvan": 8517,
      "ĠReading": 8518,
      "Ġgotten": 8519,
      "Ġought": 8520,
      "Ġdollar": 8521,
      "ĠChange": 8522,
      "ĠRadio": 8523,
      "Ġmixture": 8524,
      "Ġdemands": 8525,
      "kel": 8526,
      "being": 8527,
      "Ġterrit": 8528,
      "Ġfestival": 8529,
      "je": 8530,
      "ĠGrow": 8531,
      "Out": 8532,
      "ĠCommon": 8533,
      "Ġstronger": 8534,
      "Ġmood": 8535,
      "ificial": 8536,
      "Ġstayed": 8537,
      "ĠPut": 8538,
      "ho": 8539,
      "ĠDoc": 8540,
      "riers": 8541,
      "Ġresort": 8542,
      "ĠKat": 8543,
      "Ġrespectively": 8544,
      "PN": 8545,
      "ategory": 8546,
      "remony": 8547,
      "ĠLy": 8548,
      "inator": 8549,
      "November": 8550,
      "ĠEmail": 8551,
      "Ġexport": 8552,
      "Ġfounded": 8553,
      "Two": 8554,
      "ĠOfficer": 8555,
      "Ġarray": 8556,
      "ĠCloud": 8557,
      "ĠFront": 8558,
      "Ġchecked": 8559,
      "ingers": 8560,
      "ĠCamer": 8561,
      "ĠJoseph": 8562,
      "Ġspots": 8563,
      "ĠEasy": 8564,
      "Ġharder": 8565,
      "ĠHaving": 8566,
      "Tags": 8567,
      "Ġstead": 8568,
      "war": 8569,
      "Ġlaptop": 8570,
      "ĠIndustry": 8571,
      "ĠMembers": 8572,
      "icious": 8573,
      "Ġfundamental": 8574,
      "Before": 8575,
      "Ġfraud": 8576,
      "ĠQueen": 8577,
      "ervice": 8578,
      "Ġcurrency": 8579,
      "Ġbeds": 8580,
      "Ġlect": 8581,
      "pany": 8582,
      "Ġvert": 8583,
      "Ġawards": 8584,
      "Ġsecondary": 8585,
      "Ġearnings": 8586,
      "Ġunus": 8587,
      "Ġuncom": 8588,
      "April": 8589,
      "bow": 8590,
      "ĠMember": 8591,
      "Ġ($": 8592,
      "Eng": 8593,
      "aska": 8594,
      "Ġsuddenly": 8595,
      "Ġconcepts": 8596,
      "books": 8597,
      "Ġneither": 8598,
      "ĠPolit": 8599,
      "Ġpassword": 8600,
      "GE": 8601,
      "Ġtone": 8602,
      "oof": 8603,
      "lled": 8604,
      "lace": 8605,
      "ĠVegas": 8606,
      "Ġresponses": 8607,
      "ĠLas": 8608,
      "Ġfalling": 8609,
      "Ġstrike": 8610,
      "Ġtracking": 8611,
      "ĠAwards": 8612,
      "ĠEffect": 8613,
      "Ġlady": 8614,
      "Ġspark": 8615,
      "Ġconvey": 8616,
      "Ġsetup": 8617,
      "Ġunderstood": 8618,
      "ĠRon": 8619,
      "Ġadditionally": 8620,
      "inet": 8621,
      "RC": 8622,
      "Ġmarks": 8623,
      "Ġemails": 8624,
      "Ã¤": 8625,
      "stra": 8626,
      "Ġawarded": 8627,
      "Ġending": 8628,
      "pending": 8629,
      "ĠJr": 8630,
      "ĠTaylor": 8631,
      "ĠApr": 8632,
      "igen": 8633,
      "ĠDar": 8634,
      "ĠMethod": 8635,
      "ĠFox": 8636,
      "allas": 8637,
      "gger": 8638,
      "Ġ65": 8639,
      "ĠED": 8640,
      "ĠOK": 8641,
      "ĠEmer": 8642,
      "Ġelectricity": 8643,
      "tery": 8644,
      "Ġinitially": 8645,
      "Ġwanting": 8646,
      "Ġexceed": 8647,
      "Ġmold": 8648,
      "aha": 8649,
      "ĠSpain": 8650,
      "Ġstatistics": 8651,
      "ĠSolutions": 8652,
      "ĠBad": 8653,
      "aters": 8654,
      "umm": 8655,
      "2010": 8656,
      "Ġresume": 8657,
      "ĠFa": 8658,
      "People": 8659,
      "Ġadequ": 8660,
      "Pat": 8661,
      "onavirus": 8662,
      "ĠNic": 8663,
      "ĠNC": 8664,
      "Ġbull": 8665,
      "Ġyours": 8666,
      "Ġcuts": 8667,
      "ceived": 8668,
      "ĠWriting": 8669,
      "Ġcovering": 8670,
      "BM": 8671,
      "Ġcorrectly": 8672,
      "ĠWordPress": 8673,
      "yes": 8674,
      "Ġ1990": 8675,
      "Ġflower": 8676,
      "igs": 8677,
      "Ġtwenty": 8678,
      "ĠForce": 8679,
      "avor": 8680,
      "izabeth": 8681,
      "Ġcircuit": 8682,
      "ĠKorea": 8683,
      "Ġclock": 8684,
      "Ġrevolution": 8685,
      "Ġprotest": 8686,
      "ĠElectric": 8687,
      "Ġsubstantial": 8688,
      "Ð¾Ð": 8689,
      "ronics": 8690,
      "Google": 8691,
      "Ġrely": 8692,
      "Ġacquis": 8693,
      "ĠSingapore": 8694,
      "roke": 8695,
      "Ġcann": 8696,
      "Ġevil": 8697,
      "Ġcontaining": 8698,
      "Ġindicate": 8699,
      "Ġtact": 8700,
      "ĠPur": 8701,
      "ĠAgency": 8702,
      "Ġremained": 8703,
      "Ġmaintaining": 8704,
      "osa": 8705,
      "Ġbasketball": 8706,
      "Ġexposed": 8707,
      "HT": 8708,
      "gi": 8709,
      "Ġassociation": 8710,
      "Ġvisible": 8711,
      "ĠMap": 8712,
      "ĠMade": 8713,
      "ko": 8714,
      "ĠGro": 8715,
      "onic": 8716,
      "Ġdrag": 8717,
      "andy": 8718,
      "OG": 8719,
      "ref": 8720,
      "ĠDam": 8721,
      "Ġlesson": 8722,
      "Ġpurs": 8723,
      "Ġapparently": 8724,
      "Ġgreatly": 8725,
      "Ġunion": 8726,
      "87": 8727,
      "Ġdifficulty": 8728,
      "ART": 8729,
      "Ġemployed": 8730,
      "Ġmurder": 8731,
      "ĠBase": 8732,
      "Ġprofessor": 8733,
      "Ġclosing": 8734,
      "Ġgentle": 8735,
      "ĠChall": 8736,
      "Ã¢": 8737,
      "Ġgate": 8738,
      "Ġfuck": 8739,
      "ĠHP": 8740,
      "Ġunex": 8741,
      "Ġsees": 8742,
      "Ġswimming": 8743,
      "ersion": 8744,
      "organ": 8745,
      "ateful": 8746,
      "ĠBritain": 8747,
      "Product": 8748,
      "Ġhel": 8749,
      "zed": 8750,
      "Ġmargin": 8751,
      "ĠHoly": 8752,
      "Make": 8753,
      "ĠBroad": 8754,
      "Ġgiant": 8755,
      "cut": 8756,
      "ĠPosted": 8757,
      "Ġoppon": 8758,
      "mod": 8759,
      "ailed": 8760,
      "Ġbuff": 8761,
      "ĠStandard": 8762,
      "burgh": 8763,
      "ĠTal": 8764,
      "Ġoccurs": 8765,
      "ĠWould": 8766,
      "anny": 8767,
      "oding": 8768,
      "ĠMrs": 8769,
      "aret": 8770,
      "Ġneut": 8771,
      "Ġensuring": 8772,
      "Ġclassroom": 8773,
      "Ġtraveling": 8774,
      "ĠImp": 8775,
      "ĠEquipment": 8776,
      "ira": 8777,
      "Ġintegration": 8778,
      "awa": 8779,
      "ĠStan": 8780,
      "Ġcenters": 8781,
      "Ġlegit": 8782,
      "ĠCON": 8783,
      "ĠEdition": 8784,
      "Ġsmoke": 8785,
      "Ġobst": 8786,
      "ĠHT": 8787,
      "charge": 8788,
      "ĠSeason": 8789,
      "cor": 8790,
      "ervations": 8791,
      "Ġweapons": 8792,
      "ĠMotor": 8793,
      "Ġfocusing": 8794,
      "pton": 8795,
      "Ġfru": 8796,
      "Ġopens": 8797,
      "ĠSem": 8798,
      "Ã¶": 8799,
      "Ġlift": 8800,
      "Ġrapidly": 8801,
      "hour": 8802,
      "ĠOak": 8803,
      "ĠFinally": 8804,
      "ĠRub": 8805,
      "94": 8806,
      "ĠBrad": 8807,
      "DP": 8808,
      "erving": 8809,
      "Ġerrors": 8810,
      "ylvania": 8811,
      "orce": 8812,
      "Christ": 8813,
      "uous": 8814,
      "Ġ120": 8815,
      "Ġscientists": 8816,
      "Ġstood": 8817,
      "Ġscrew": 8818,
      "novation": 8819,
      "Ġinteraction": 8820,
      "Ġlifetime": 8821,
      "ĠSupreme": 8822,
      "84": 8823,
      "Ġcompensation": 8824,
      "lisher": 8825,
      "Ġpocket": 8826,
      "inst": 8827,
      "ji": 8828,
      "ĠAsk": 8829,
      "Ġinvestments": 8830,
      "October": 8831,
      "ĠStaff": 8832,
      "andon": 8833,
      "ĠLimited": 8834,
      "Ġarr": 8835,
      "Ġequivalent": 8836,
      "Ġtournament": 8837,
      "Ġmask": 8838,
      "ĠIrish": 8839,
      "Ġasset": 8840,
      "ĠMom": 8841,
      "reation": 8842,
      "Ġpublication": 8843,
      "Ġlip": 8844,
      "Ġquantity": 8845,
      "ĠMiami": 8846,
      "ador": 8847,
      "Photo": 8848,
      "Ġlatter": 8849,
      "ĠLew": 8850,
      "ĠFather": 8851,
      "Ġgained": 8852,
      "ethe": 8853,
      "Ġdrawn": 8854,
      "wich": 8855,
      "Ġ1998": 8856,
      "ĠFinance": 8857,
      "Ġsq": 8858,
      "Ġbills": 8859,
      "Ġtissue": 8860,
      "Ġneuro": 8861,
      "ĠEN": 8862,
      "Ġbehalf": 8863,
      "oken": 8864,
      "ĠFilm": 8865,
      "ĠDream": 8866,
      "Ġworkshop": 8867,
      "Ġgap": 8868,
      "Ġsharp": 8869,
      "Ġexhaust": 8870,
      "iour": 8871,
      "ĠWithout": 8872,
      "ĠFeatures": 8873,
      "ĠHenry": 8874,
      "power": 8875,
      "ĠMother": 8876,
      "ĠIllinois": 8877,
      "Mod": 8878,
      "ifting": 8879,
      "Ġapplicable": 8880,
      "Ġdont": 8881,
      "ĠDeb": 8882,
      "Ġgym": 8883,
      "tical": 8884,
      "ussion": 8885,
      "ĠBaby": 8886,
      "Ġfrequency": 8887,
      "Ġsalary": 8888,
      "ĠCollection": 8889,
      "ategories": 8890,
      "Ġgram": 8891,
      "ĠHouston": 8892,
      "Ġmath": 8893,
      "cker": 8894,
      "93": 8895,
      "upid": 8896,
      "Ġpor": 8897,
      "Ġwise": 8898,
      "urer": 8899,
      "osc": 8900,
      "Ġuniversities": 8901,
      "Ġinsert": 8902,
      "ĠAdam": 8903,
      "%)": 8904,
      "mg": 8905,
      "month": 8906,
      "claim": 8907,
      "Note": 8908,
      "hop": 8909,
      "days": 8910,
      "Ġdent": 8911,
      "Ġboss": 8912,
      "ounded": 8913,
      "tense": 8914,
      "Ġmattress": 8915,
      "regon": 8916,
      "Ġdrinks": 8917,
      "ĠText": 8918,
      "Ġstrongly": 8919,
      "Ġjuice": 8920,
      "ĠArizona": 8921,
      "ĠThings": 8922,
      "pson": 8923,
      "Ġplane": 8924,
      "ĠShort": 8925,
      "Ġfits": 8926,
      "Ġentering": 8927,
      "Ġconsequences": 8928,
      "BN": 8929,
      "Hot": 8930,
      "icted": 8931,
      "ĠEth": 8932,
      "ckets": 8933,
      "Ġmistake": 8934,
      "Ġflying": 8935,
      "ĠStation": 8936,
      "Ġstages": 8937,
      "Ġputs": 8938,
      "ĠWeight": 8939,
      "El": 8940,
      "Ġinstruction": 8941,
      "Ġprotocol": 8942,
      "Ġattach": 8943,
      "ĠChapter": 8944,
      "ĠBeing": 8945,
      "isted": 8946,
      "2021": 8947,
      "Ġequally": 8948,
      "Ġconvert": 8949,
      "Ġthinks": 8950,
      "Ġloud": 8951,
      "92": 8952,
      "Ġseasons": 8953,
      "including": 8954,
      "ĠPakistan": 8955,
      "Ġrural": 8956,
      "rix": 8957,
      "Ġcolleges": 8958,
      "ĠPartners": 8959,
      "ĠRs": 8960,
      "ĠSym": 8961,
      "ĠDO": 8962,
      "Ġheading": 8963,
      "Ġgall": 8964,
      "Ġconclusion": 8965,
      "Ġfaced": 8966,
      "August": 8967,
      "\")": 8968,
      "AV": 8969,
      "Ġtherap": 8970,
      "Ġbirds": 8971,
      "anwhile": 8972,
      "Ġbeneficial": 8973,
      "Ġlaid": 8974,
      "ĠUnfortunately": 8975,
      "UD": 8976,
      "Ġessentially": 8977,
      "ĠTerms": 8978,
      "ĠCarl": 8979,
      "icide": 8980,
      "Ġspray": 8981,
      "Ġtransactions": 8982,
      "Ġattitude": 8983,
      "ĠSquare": 8984,
      "Ġcertificate": 8985,
      "Ġpackages": 8986,
      "Ġlanguages": 8987,
      "agen": 8988,
      "ĠPhilipp": 8989,
      "Ġocean": 8990,
      "ractions": 8991,
      "ĠBush": 8992,
      "Ġ64": 8993,
      "HP": 8994,
      "wear": 8995,
      "Ġpreparing": 8996,
      "omed": 8997,
      "Ġpermission": 8998,
      "Ġimprovements": 8999,
      "raine": 9000,
      "heast": 9001,
      "Ġinspe": 9002,
      "Ġexceptional": 9003,
      "Ġ1000": 9004,
      "Ġautomatic": 9005,
      "ĠCivil": 9006,
      "Ġtrim": 9007,
      "Ġvessel": 9008,
      "Ġoblig": 9009,
      "Ġantib": 9010,
      "Ġinitiative": 9011,
      "Ġsegment": 9012,
      "Ġuncertain": 9013,
      "Ġloose": 9014,
      "Ġlegisl": 9015,
      "Ġje": 9016,
      "Ġwhilst": 9017,
      "Ġtemplate": 9018,
      "ista": 9019,
      "jection": 9020,
      "Hel": 9021,
      "ensus": 9022,
      "Ġunknown": 9023,
      "ĠViet": 9024,
      "ĠAge": 9025,
      "Ġ250": 9026,
      "Ġfocuses": 9027,
      "aya": 9028,
      "Ġcomputers": 9029,
      "ĠForest": 9030,
      "ĠRestaur": 9031,
      "ĠTrade": 9032,
      "Mon": 9033,
      "Ġrequested": 9034,
      "Ġreturning": 9035,
      "Hello": 9036,
      "uten": 9037,
      "Ġsatisfaction": 9038,
      "ĠGuard": 9039,
      "GA": 9040,
      "Ġcolleagues": 9041,
      "eties": 9042,
      "Ġstudying": 9043,
      "ilet": 9044,
      "MM": 9045,
      "~~": 9046,
      "ĠMagazine": 9047,
      "Ġpersonnel": 9048,
      "home": 9049,
      "Ġrestrictions": 9050,
      "Ġprinting": 9051,
      "Ġconvin": 9052,
      "rection": 9053,
      "CL": 9054,
      "Ġcasual": 9055,
      "Ġopinions": 9056,
      "Ġdowntown": 9057,
      "Ġalgorith": 9058,
      "sen": 9059,
      "ĠEastern": 9060,
      "Em": 9061,
      "Ġchest": 9062,
      "Ġalter": 9063,
      "rer": 9064,
      "Ġencouraged": 9065,
      "Ġmaintained": 9066,
      "Ġtrips": 9067,
      "ĠModern": 9068,
      "Ġfinger": 9069,
      "ĠExperience": 9070,
      "html": 9071,
      "Ġresidence": 9072,
      "ĠFred": 9073,
      "zes": 9074,
      "Ġtons": 9075,
      "Ġtransmission": 9076,
      "Ġvictims": 9077,
      "ĠDark": 9078,
      "Ġcomplim": 9079,
      "Ġaccounting": 9080,
      "Ġsupplier": 9081,
      "Ġentrance": 9082,
      "Ġgranted": 9083,
      "Ġminister": 9084,
      "child": 9085,
      "Work": 9086,
      "July": 9087,
      "ĠExpress": 9088,
      "ĠAdditionally": 9089,
      "Ġassistant": 9090,
      "nesota": 9091,
      "Learn": 9092,
      "Ġpointed": 9093,
      "ĠOp": 9094,
      "Ġalarm": 9095,
      "Ġwarning": 9096,
      "ESS": 9097,
      "ĠIce": 9098,
      "ima": 9099,
      "Ġfrustr": 9100,
      "ĠIII": 9101,
      "Ġokay": 9102,
      "Ġholidays": 9103,
      "nders": 9104,
      "ashes": 9105,
      "Ġvegetables": 9106,
      "ĠToronto": 9107,
      "Act": 9108,
      "imp": 9109,
      "ĠMs": 9110,
      "gel": 9111,
      "Ġopposed": 9112,
      "ĠChem": 9113,
      "Ġaircraft": 9114,
      "etch": 9115,
      "ĠPict": 9116,
      "Ġrepresentative": 9117,
      "Ġroads": 9118,
      "Ġ>>": 9119,
      "otive": 9120,
      "Ġvisits": 9121,
      "ĠMonth": 9122,
      "Ġdepression": 9123,
      "omething": 9124,
      "season": 9125,
      "iances": 9126,
      "Ġscenes": 9127,
      "ĠKh": 9128,
      "Ġfalls": 9129,
      "Because": 9130,
      "ĠBul": 9131,
      "Ġintense": 9132,
      "oker": 9133,
      "what": 9134,
      "Ty": 9135,
      "Ġsentence": 9136,
      "Ġprime": 9137,
      "Ġinjured": 9138,
      "ĠCapt": 9139,
      "Ġsurve": 9140,
      "Ġinteractive": 9141,
      "Ġdiabetes": 9142,
      "Ġthesis": 9143,
      "Ġscope": 9144,
      "Ġheaded": 9145,
      "Ġplain": 9146,
      "fers": 9147,
      "cycle": 9148,
      "iah": 9149,
      "Ġdispl": 9150,
      "flow": 9151,
      "Ġdishes": 9152,
      "Source": 9153,
      "Ġdisplayed": 9154,
      "Ġphenomen": 9155,
      "acon": 9156,
      "Ġtutorial": 9157,
      "sylvania": 9158,
      "step": 9159,
      "Ġgraphics": 9160,
      "Ġsuffer": 9161,
      "Ġbrilliant": 9162,
      "Ġtape": 9163,
      "Ġanalyst": 9164,
      "ĠBreak": 9165,
      "eness": 9166,
      "Ġshoulder": 9167,
      "ifier": 9168,
      "Use": 9169,
      "olesale": 9170,
      "Ġescape": 9171,
      "there": 9172,
      "ydney": 9173,
      "91": 9174,
      "Ġcontained": 9175,
      "ĠCL": 9176,
      "bie": 9177,
      "obe": 9178,
      "hesis": 9179,
      "Ġconcert": 9180,
      "Ġtooth": 9181,
      "ulpt": 9182,
      "iary": 9183,
      "ĠDescription": 9184,
      "Ġfifth": 9185,
      "ĠAp": 9186,
      "Ġcombine": 9187,
      "83": 9188,
      "TP": 9189,
      "Ġevolution": 9190,
      "udi": 9191,
      "Ġenforcement": 9192,
      "Ġmedication": 9193,
      "Ġque": 9194,
      "Ġemployer": 9195,
      "Ġtomat": 9196,
      "Ġhung": 9197,
      "Ġthousand": 9198,
      "Ġreveal": 9199,
      "Ġarrested": 9200,
      "Ġbid": 9201,
      "Ġorganis": 9202,
      "Ġindicated": 9203,
      "vard": 9204,
      "achelor": 9205,
      "Ġmassage": 9206,
      "Ġfarmers": 9207,
      "rets": 9208,
      "ĠPosts": 9209,
      "ĠAng": 9210,
      "Ġorient": 9211,
      "Ġparticipation": 9212,
      "September": 9213,
      "FF": 9214,
      "unicip": 9215,
      "phia": 9216,
      "Ġlake": 9217,
      "Ġtie": 9218,
      "ĠDNA": 9219,
      "ĠGolden": 9220,
      "ĠEvents": 9221,
      "ĠTX": 9222,
      "ĠCS": 9223,
      "ĠPerhaps": 9224,
      "ï¿½ï¿½": 9225,
      "ĠVen": 9226,
      "sect": 9227,
      "Ġmeets": 9228,
      "pay": 9229,
      "Ġwake": 9230,
      "Ġdiversity": 9231,
      "ĠPric": 9232,
      "Ġacquired": 9233,
      "Dec": 9234,
      "ĠClean": 9235,
      "ĠGreek": 9236,
      "estone": 9237,
      "aa": 9238,
      "Ġseeds": 9239,
      "ocracy": 9240,
      "ĠCreek": 9241,
      "ĠNick": 9242,
      "PL": 9243,
      "Ġgay": 9244,
      "Ġperm": 9245,
      "ludes": 9246,
      "Ġattending": 9247,
      "swered": 9248,
      "isdom": 9249,
      "Ġexists": 9250,
      "ĠDiego": 9251,
      "alty": 9252,
      "Ġflexibility": 9253,
      "Ġadopted": 9254,
      "Ġequity": 9255,
      "ami": 9256,
      "ĠPhone": 9257,
      "150": 9258,
      "Ġboot": 9259,
      "ĠSM": 9260,
      "ĠSwed": 9261,
      "ĠAvailable": 9262,
      "Start": 9263,
      "Ġbone": 9264,
      "Description": 9265,
      "ela": 9266,
      "world": 9267,
      "Ġassigned": 9268,
      "owa": 9269,
      "ĠInn": 9270,
      "oen": 9271,
      "Ġru": 9272,
      "Ġintellect": 9273,
      "ĠBody": 9274,
      "ĠEX": 9275,
      "omework": 9276,
      "Ġadmit": 9277,
      "Ġdeveloper": 9278,
      "ĠCut": 9279,
      "ĠTR": 9280,
      "vals": 9281,
      "ĠQuick": 9282,
      "ige": 9283,
      "ĠBand": 9284,
      "ĠEric": 9285,
      "Ġinstitution": 9286,
      "ĠSche": 9287,
      "uating": 9288,
      "vo": 9289,
      "Ġaddresses": 9290,
      "Ġtap": 9291,
      ".âĢĻ": 9292,
      "Ġelected": 9293,
      "Ġbelt": 9294,
      "arat": 9295,
      "Ġsought": 9296,
      "Ġdecrease": 9297,
      "Ġutilizing": 9298,
      "limited": 9299,
      "ĠSelf": 9300,
      "ĠGas": 9301,
      "riculum": 9302,
      "ĠMiller": 9303,
      "ILL": 9304,
      "Ġcalm": 9305,
      "Ġspeaker": 9306,
      "olving": 9307,
      "Ġindu": 9308,
      "Ġ%": 9309,
      "ĠJobs": 9310,
      "Ġshell": 9311,
      "ĠHollywood": 9312,
      "Ġcm": 9313,
      "abis": 9314,
      "Ġorganisation": 9315,
      "Ġhoriz": 9316,
      "axy": 9317,
      "aza": 9318,
      "Ġtemporary": 9319,
      "Ġsink": 9320,
      "Ġformula": 9321,
      "Ġfunctionality": 9322,
      "Ġworried": 9323,
      "uties": 9324,
      "ĠDavis": 9325,
      "ĠApplication": 9326,
      "ĠNO": 9327,
      "adelphia": 9328,
      "Ġ44": 9329,
      "opping": 9330,
      "Ġdefine": 9331,
      "Ġconventional": 9332,
      "ĠStudio": 9333,
      "ĠEnjoy": 9334,
      "ĠComputer": 9335,
      "Ġlob": 9336,
      "Ġsomebody": 9337,
      "Ġboards": 9338,
      "Ġvotes": 9339,
      "Ġlayout": 9340,
      "unter": 9341,
      "Ġcolon": 9342,
      "ĠLic": 9343,
      "Ġfiber": 9344,
[...]
